unsigned char model_tflite[] = {
  0x1c, 0x00, 0x00, 0x00, 0x54, 0x46, 0x4c, 0x33, 0x14, 0x00, 0x20, 0x00,
  0x04, 0x00, 0x08, 0x00, 0x0c, 0x00, 0x10, 0x00, 0x14, 0x00, 0x00, 0x00,
  0x18, 0x00, 0x1c, 0x00, 0x14, 0x00, 0x00, 0x00, 0x03, 0x00, 0x00, 0x00,
  0x64, 0x00, 0x00, 0x00, 0x58, 0x00, 0x00, 0x00, 0x48, 0x01, 0x00, 0x00,
  0x0c, 0x00, 0x00, 0x00, 0xf0, 0x00, 0x00, 0x00, 0x68, 0x00, 0x00, 0x00,
  0x10, 0x00, 0x00, 0x00, 0x8c, 0x14, 0x00, 0x00, 0x88, 0x14, 0x00, 0x00,
  0x70, 0x13, 0x00, 0x00, 0x34, 0x12, 0x00, 0x00, 0x5c, 0x11, 0x00, 0x00,
  0xa8, 0x08, 0x00, 0x00, 0x24, 0x08, 0x00, 0x00, 0x9c, 0x07, 0x00, 0x00,
  0x30, 0x07, 0x00, 0x00, 0x68, 0x14, 0x00, 0x00, 0x64, 0x14, 0x00, 0x00,
  0x60, 0x14, 0x00, 0x00, 0x5c, 0x14, 0x00, 0x00, 0x58, 0x14, 0x00, 0x00,
  0x54, 0x14, 0x00, 0x00, 0xdc, 0x00, 0x00, 0x00, 0x01, 0x00, 0x00, 0x00,
  0x14, 0x01, 0x00, 0x00, 0x05, 0x00, 0x00, 0x00, 0x34, 0x06, 0x00, 0x00,
  0x2c, 0x05, 0x00, 0x00, 0x40, 0x04, 0x00, 0x00, 0x58, 0x03, 0x00, 0x00,
  0xb8, 0x01, 0x00, 0x00, 0x01, 0x00, 0x00, 0x00, 0x10, 0x00, 0x00, 0x00,
  0x00, 0x00, 0x0a, 0x00, 0x10, 0x00, 0x0c, 0x00, 0x08, 0x00, 0x04, 0x00,
  0x0a, 0x00, 0x00, 0x00, 0x0c, 0x00, 0x00, 0x00, 0x1c, 0x00, 0x00, 0x00,
  0x20, 0x00, 0x00, 0x00, 0x0f, 0x00, 0x00, 0x00, 0x73, 0x65, 0x72, 0x76,
  0x69, 0x6e, 0x67, 0x5f, 0x64, 0x65, 0x66, 0x61, 0x75, 0x6c, 0x74, 0x00,
  0x01, 0x00, 0x00, 0x00, 0x14, 0x00, 0x00, 0x00, 0x01, 0x00, 0x00, 0x00,
  0x24, 0x00, 0x00, 0x00, 0x08, 0x00, 0x0c, 0x00, 0x08, 0x00, 0x04, 0x00,
  0x08, 0x00, 0x00, 0x00, 0x0d, 0x00, 0x00, 0x00, 0x04, 0x00, 0x00, 0x00,
  0x07, 0x00, 0x00, 0x00, 0x64, 0x65, 0x6e, 0x73, 0x65, 0x5f, 0x31, 0x00,
  0x56, 0xed, 0xff, 0xff, 0x04, 0x00, 0x00, 0x00, 0x0c, 0x00, 0x00, 0x00,
  0x63, 0x6f, 0x6e, 0x76, 0x32, 0x64, 0x5f, 0x69, 0x6e, 0x70, 0x75, 0x74,
  0x00, 0x00, 0x00, 0x00, 0x01, 0x00, 0x00, 0x00, 0x0c, 0x00, 0x00, 0x00,
  0x08, 0x00, 0x0c, 0x00, 0x04, 0x00, 0x08, 0x00, 0x08, 0x00, 0x00, 0x00,
  0x08, 0x00, 0x00, 0x00, 0x0f, 0x00, 0x00, 0x00, 0x13, 0x00, 0x00, 0x00,
  0x6d, 0x69, 0x6e, 0x5f, 0x72, 0x75, 0x6e, 0x74, 0x69, 0x6d, 0x65, 0x5f,
  0x76, 0x65, 0x72, 0x73, 0x69, 0x6f, 0x6e, 0x00, 0xa6, 0xed, 0xff, 0xff,
  0x04, 0x00, 0x00, 0x00, 0x10, 0x00, 0x00, 0x00, 0x31, 0x2e, 0x31, 0x34,
  0x2e, 0x30, 0x00, 0x00, 0x00, 0x00, 0x00, 0x00, 0x00, 0x00, 0x00, 0x00,
  0x0f, 0x00, 0x00, 0x00, 0x4d, 0x4c, 0x49, 0x52, 0x20, 0x43, 0x6f, 0x6e,
  0x76, 0x65, 0x72, 0x74, 0x65, 0x64, 0x2e, 0x00, 0x00, 0x00, 0x0e, 0x00,
  0x18, 0x00, 0x04, 0x00, 0x08, 0x00, 0x0c, 0x00, 0x10, 0x00, 0x14, 0x00,
  0x0e, 0x00, 0x00, 0x00, 0x4c, 0x00, 0x00, 0x00, 0x40, 0x00, 0x00, 0x00,
  0x34, 0x00, 0x00, 0x00, 0x14, 0x00, 0x00, 0x00, 0x04, 0x00, 0x00, 0x00,
  0x04, 0x00, 0x00, 0x00, 0x6d, 0x61, 0x69, 0x6e, 0x00, 0x00, 0x00, 0x00,
  0x06, 0x00, 0x00, 0x00, 0xac, 0x04, 0x00, 0x00, 0xa8, 0x03, 0x00, 0x00,
  0xe8, 0x02, 0x00, 0x00, 0xe4, 0x01, 0x00, 0x00, 0x1c, 0x01, 0x00, 0x00,
  0x50, 0x00, 0x00, 0x00, 0x01, 0x00, 0x00, 0x00, 0x0d, 0x00, 0x00, 0x00,
  0x01, 0x00, 0x00, 0x00, 0x00, 0x00, 0x00, 0x00, 0x0e, 0x00, 0x00, 0x00,
  0x48, 0x12, 0x00, 0x00, 0xec, 0x11, 0x00, 0x00, 0xf8, 0x10, 0x00, 0x00,
  0xe0, 0x0f, 0x00, 0x00, 0x4c, 0x0f, 0x00, 0x00, 0xa8, 0x06, 0x00, 0x00,
  0x10, 0x06, 0x00, 0x00, 0x9c, 0x05, 0x00, 0x00, 0xc4, 0x04, 0x00, 0x00,
  0xbc, 0x03, 0x00, 0x00, 0xd0, 0x02, 0x00, 0x00, 0xe8, 0x01, 0x00, 0x00,
  0x04, 0x01, 0x00, 0x00, 0x44, 0x00, 0x00, 0x00, 0x46, 0xff, 0xff, 0xff,
  0x00, 0x00, 0x00, 0x09, 0x04, 0x00, 0x00, 0x00, 0x1c, 0x00, 0x00, 0x00,
  0x10, 0x00, 0x00, 0x00, 0x04, 0x00, 0x00, 0x00, 0x8a, 0xee, 0xff, 0xff,
  0x00, 0x00, 0x80, 0x3f, 0x01, 0x00, 0x00, 0x00, 0x0d, 0x00, 0x00, 0x00,
  0x01, 0x00, 0x00, 0x00, 0x0c, 0x00, 0x00, 0x00, 0xa0, 0xfb, 0xff, 0xff,
  0x19, 0x00, 0x00, 0x00, 0x00, 0x00, 0x00, 0x19, 0x02, 0x00, 0x00, 0x00,
  0x44, 0xee, 0xff, 0xff, 0x00, 0x00, 0x00, 0x09, 0x40, 0x00, 0x00, 0x00,
  0x0e, 0x00, 0x00, 0x00, 0x18, 0x00, 0x00, 0x00, 0x40, 0x00, 0x00, 0x00,
  0x04, 0x00, 0x00, 0x00, 0x02, 0x00, 0x00, 0x00, 0xff, 0xff, 0xff, 0xff,
  0x02, 0x00, 0x00, 0x00, 0x19, 0x00, 0x00, 0x00, 0x53, 0x74, 0x61, 0x74,
  0x65, 0x66, 0x75, 0x6c, 0x50, 0x61, 0x72, 0x74, 0x69, 0x74, 0x69, 0x6f,
  0x6e, 0x65, 0x64, 0x43, 0x61, 0x6c, 0x6c, 0x3a, 0x30, 0x00, 0x00, 0x00,
  0x02, 0x00, 0x00, 0x00, 0x01, 0x00, 0x00, 0x00, 0x02, 0x00, 0x00, 0x00,
  0x1c, 0xee, 0xff, 0xff, 0x18, 0x00, 0x00, 0x00, 0x04, 0x00, 0x00, 0x00,
  0x01, 0x00, 0x00, 0x00, 0x80, 0xff, 0xff, 0xff, 0xff, 0xff, 0xff, 0xff,
  0x00, 0x00, 0x00, 0x00, 0x01, 0x00, 0x00, 0x00, 0x00, 0x00, 0x80, 0x3b,
  0x00, 0x00, 0x0e, 0x00, 0x18, 0x00, 0x08, 0x00, 0x0c, 0x00, 0x10, 0x00,
  0x07, 0x00, 0x14, 0x00, 0x0e, 0x00, 0x00, 0x00, 0x00, 0x00, 0x00, 0x08,
  0x03, 0x00, 0x00, 0x00, 0x18, 0x00, 0x00, 0x00, 0x0c, 0x00, 0x00, 0x00,
  0x04, 0x00, 0x00, 0x00, 0x3c, 0xee, 0xff, 0xff, 0x01, 0x00, 0x00, 0x00,
  0x0c, 0x00, 0x00, 0x00, 0x03, 0x00, 0x00, 0x00, 0x0b, 0x00, 0x00, 0x00,
  0x06, 0x00, 0x00, 0x00, 0x07, 0x00, 0x00, 0x00, 0x00, 0xef, 0xff, 0xff,
  0x00, 0x00, 0x00, 0x09, 0x5c, 0x00, 0x00, 0x00, 0x0d, 0x00, 0x00, 0x00,
  0x18, 0x00, 0x00, 0x00, 0x5c, 0x00, 0x00, 0x00, 0x04, 0x00, 0x00, 0x00,
  0x02, 0x00, 0x00, 0x00, 0xff, 0xff, 0xff, 0xff, 0x02, 0x00, 0x00, 0x00,
  0x34, 0x00, 0x00, 0x00, 0x73, 0x65, 0x71, 0x75, 0x65, 0x6e, 0x74, 0x69,
  0x61, 0x6c, 0x2f, 0x64, 0x65, 0x6e, 0x73, 0x65, 0x5f, 0x31, 0x2f, 0x4d,
  0x61, 0x74, 0x4d, 0x75, 0x6c, 0x3b, 0x73, 0x65, 0x71, 0x75, 0x65, 0x6e,
  0x74, 0x69, 0x61, 0x6c, 0x2f, 0x64, 0x65, 0x6e, 0x73, 0x65, 0x5f, 0x31,
  0x2f, 0x42, 0x69, 0x61, 0x73, 0x41, 0x64, 0x64, 0x00, 0x00, 0x00, 0x00,
  0x02, 0x00, 0x00, 0x00, 0x01, 0x00, 0x00, 0x00, 0x02, 0x00, 0x00, 0x00,
  0xf4, 0xee, 0xff, 0xff, 0x14, 0x00, 0x00, 0x00, 0x04, 0x00, 0x00, 0x00,
  0x01, 0x00, 0x00, 0x00, 0x66, 0x00, 0x00, 0x00, 0x00, 0x00, 0x00, 0x00,
  0x01, 0x00, 0x00, 0x00, 0xd5, 0xe8, 0x8a, 0x3b, 0x52, 0xfe, 0xff, 0xff,
  0x00, 0x00, 0x00, 0x08, 0x03, 0x00, 0x00, 0x00, 0x24, 0x00, 0x00, 0x00,
  0x18, 0x00, 0x00, 0x00, 0x0c, 0x00, 0x00, 0x00, 0x00, 0x00, 0x06, 0x00,
  0x08, 0x00, 0x07, 0x00, 0x06, 0x00, 0x00, 0x00, 0x00, 0x00, 0x00, 0x01,
  0x01, 0x00, 0x00, 0x00, 0x0b, 0x00, 0x00, 0x00, 0x03, 0x00, 0x00, 0x00,
  0x0a, 0x00, 0x00, 0x00, 0x04, 0x00, 0x00, 0x00, 0x05, 0x00, 0x00, 0x00,
  0x3c, 0xfd, 0xff, 0xff, 0x09, 0x00, 0x00, 0x00, 0x00, 0x00, 0x00, 0x09,
  0x04, 0x00, 0x00, 0x00, 0xe0, 0xef, 0xff, 0xff, 0x00, 0x00, 0x00, 0x09,
  0x6c, 0x00, 0x00, 0x00, 0x0c, 0x00, 0x00, 0x00, 0x18, 0x00, 0x00, 0x00,
  0x6c, 0x00, 0x00, 0x00, 0x04, 0x00, 0x00, 0x00, 0x02, 0x00, 0x00, 0x00,
  0xff, 0xff, 0xff, 0xff, 0x08, 0x00, 0x00, 0x00, 0x46, 0x00, 0x00, 0x00,
  0x73, 0x65, 0x71, 0x75, 0x65, 0x6e, 0x74, 0x69, 0x61, 0x6c, 0x2f, 0x64,
  0x65, 0x6e, 0x73, 0x65, 0x2f, 0x4d, 0x61, 0x74, 0x4d, 0x75, 0x6c, 0x3b,
  0x73, 0x65, 0x71, 0x75, 0x65, 0x6e, 0x74, 0x69, 0x61, 0x6c, 0x2f, 0x64,
  0x65, 0x6e, 0x73, 0x65, 0x2f, 0x52, 0x65, 0x6c, 0x75, 0x3b, 0x73, 0x65,
  0x71, 0x75, 0x65, 0x6e, 0x74, 0x69, 0x61, 0x6c, 0x2f, 0x64, 0x65, 0x6e,
  0x73, 0x65, 0x2f, 0x42, 0x69, 0x61, 0x73, 0x41, 0x64, 0x64, 0x00, 0x00,
  0x02, 0x00, 0x00, 0x00, 0x01, 0x00, 0x00, 0x00, 0x08, 0x00, 0x00, 0x00,
  0xe4, 0xef, 0xff, 0xff, 0x18, 0x00, 0x00, 0x00, 0x04, 0x00, 0x00, 0x00,
  0x01, 0x00, 0x00, 0x00, 0x80, 0xff, 0xff, 0xff, 0xff, 0xff, 0xff, 0xff,
  0x00, 0x00, 0x00, 0x00, 0x01, 0x00, 0x00, 0x00, 0x31, 0x83, 0xc5, 0x3b,
  0x00, 0x00, 0x0a, 0x00, 0x10, 0x00, 0x04, 0x00, 0x08, 0x00, 0x0c, 0x00,
  0x0a, 0x00, 0x00, 0x00, 0x02, 0x00, 0x00, 0x00, 0x10, 0x00, 0x00, 0x00,
  0x04, 0x00, 0x00, 0x00, 0x01, 0x00, 0x00, 0x00, 0x0a, 0x00, 0x00, 0x00,
  0x02, 0x00, 0x00, 0x00, 0x09, 0x00, 0x00, 0x00, 0x01, 0x00, 0x00, 0x00,
  0x20, 0xfe, 0xff, 0xff, 0x16, 0x00, 0x00, 0x00, 0x00, 0x00, 0x00, 0x16,
  0x01, 0x00, 0x00, 0x00, 0xc4, 0xf0, 0xff, 0xff, 0x00, 0x00, 0x00, 0x09,
  0x40, 0x00, 0x00, 0x00, 0x0b, 0x00, 0x00, 0x00, 0x18, 0x00, 0x00, 0x00,
  0x40, 0x00, 0x00, 0x00, 0x04, 0x00, 0x00, 0x00, 0x02, 0x00, 0x00, 0x00,
  0xff, 0xff, 0xff, 0xff, 0x08, 0x01, 0x00, 0x00, 0x1a, 0x00, 0x00, 0x00,
  0x73, 0x65, 0x71, 0x75, 0x65, 0x6e, 0x74, 0x69, 0x61, 0x6c, 0x2f, 0x66,
  0x6c, 0x61, 0x74, 0x74, 0x65, 0x6e, 0x2f, 0x52, 0x65, 0x73, 0x68, 0x61,
  0x70, 0x65, 0x00, 0x00, 0x02, 0x00, 0x00, 0x00, 0x01, 0x00, 0x00, 0x00,
  0x08, 0x01, 0x00, 0x00, 0x9c, 0xf0, 0xff, 0xff, 0x18, 0x00, 0x00, 0x00,
  0x04, 0x00, 0x00, 0x00, 0x01, 0x00, 0x00, 0x00, 0x80, 0xff, 0xff, 0xff,
  0xff, 0xff, 0xff, 0xff, 0x00, 0x00, 0x00, 0x00, 0x01, 0x00, 0x00, 0x00,
  0x3a, 0x82, 0x8c, 0x3b, 0x00, 0x00, 0x0e, 0x00, 0x1a, 0x00, 0x08, 0x00,
  0x0c, 0x00, 0x10, 0x00, 0x07, 0x00, 0x14, 0x00, 0x0e, 0x00, 0x00, 0x00,
  0x00, 0x00, 0x00, 0x05, 0x01, 0x00, 0x00, 0x00, 0x3c, 0x00, 0x00, 0x00,
  0x30, 0x00, 0x00, 0x00, 0x14, 0x00, 0x00, 0x00, 0x00, 0x00, 0x0e, 0x00,
  0x18, 0x00, 0x17, 0x00, 0x10, 0x00, 0x0c, 0x00, 0x08, 0x00, 0x04, 0x00,
  0x0e, 0x00, 0x00, 0x00, 0x03, 0x00, 0x00, 0x00, 0x03, 0x00, 0x00, 0x00,
  0x03, 0x00, 0x00, 0x00, 0x03, 0x00, 0x00, 0x00, 0x00, 0x00, 0x00, 0x01,
  0x01, 0x00, 0x00, 0x00, 0x09, 0x00, 0x00, 0x00, 0x01, 0x00, 0x00, 0x00,
  0x08, 0x00, 0x00, 0x00, 0x08, 0xff, 0xff, 0xff, 0x11, 0x00, 0x00, 0x00,
  0x00, 0x00, 0x00, 0x11, 0x02, 0x00, 0x00, 0x00, 0xac, 0xf1, 0xff, 0xff,
  0x00, 0x00, 0x00, 0x09, 0x50, 0x00, 0x00, 0x00, 0x0a, 0x00, 0x00, 0x00,
  0x20, 0x00, 0x00, 0x00, 0x58, 0x00, 0x00, 0x00, 0x04, 0x00, 0x00, 0x00,
  0x04, 0x00, 0x00, 0x00, 0xff, 0xff, 0xff, 0xff, 0x21, 0x00, 0x00, 0x00,
  0x01, 0x00, 0x00, 0x00, 0x08, 0x00, 0x00, 0x00, 0x20, 0x00, 0x00, 0x00,
  0x73, 0x65, 0x71, 0x75, 0x65, 0x6e, 0x74, 0x69, 0x61, 0x6c, 0x2f, 0x6d,
  0x61, 0x78, 0x5f, 0x70, 0x6f, 0x6f, 0x6c, 0x69, 0x6e, 0x67, 0x32, 0x64,
  0x2f, 0x4d, 0x61, 0x78, 0x50, 0x6f, 0x6f, 0x6c, 0x00, 0x00, 0x00, 0x00,
  0x04, 0x00, 0x00, 0x00, 0x01, 0x00, 0x00, 0x00, 0x21, 0x00, 0x00, 0x00,
  0x01, 0x00, 0x00, 0x00, 0x08, 0x00, 0x00, 0x00, 0x9c, 0xf1, 0xff, 0xff,
  0x18, 0x00, 0x00, 0x00, 0x04, 0x00, 0x00, 0x00, 0x01, 0x00, 0x00, 0x00,
  0x80, 0xff, 0xff, 0xff, 0xff, 0xff, 0xff, 0xff, 0x00, 0x00, 0x00, 0x00,
  0x01, 0x00, 0x00, 0x00, 0x3a, 0x82, 0x8c, 0x3b, 0x00, 0x00, 0x0e, 0x00,
  0x14, 0x00, 0x00, 0x00, 0x08, 0x00, 0x0c, 0x00, 0x07, 0x00, 0x10, 0x00,
  0x0e, 0x00, 0x00, 0x00, 0x00, 0x00, 0x00, 0x01, 0x30, 0x00, 0x00, 0x00,
  0x24, 0x00, 0x00, 0x00, 0x10, 0x00, 0x00, 0x00, 0x0c, 0x00, 0x10, 0x00,
  0x00, 0x00, 0x04, 0x00, 0x08, 0x00, 0x0f, 0x00, 0x0c, 0x00, 0x00, 0x00,
  0x01, 0x00, 0x00, 0x00, 0x01, 0x00, 0x00, 0x00, 0x00, 0x00, 0x00, 0x01,
  0x01, 0x00, 0x00, 0x00, 0x08, 0x00, 0x00, 0x00, 0x03, 0x00, 0x00, 0x00,
  0x00, 0x00, 0x00, 0x00, 0x02, 0x00, 0x00, 0x00, 0x03, 0x00, 0x00, 0x00,
  0x0c, 0x00, 0x10, 0x00, 0x0b, 0x00, 0x00, 0x00, 0x0c, 0x00, 0x04, 0x00,
  0x0c, 0x00, 0x00, 0x00, 0x03, 0x00, 0x00, 0x00, 0x00, 0x00, 0x00, 0x03,
  0x03, 0x00, 0x00, 0x00, 0xb0, 0xf2, 0xff, 0xff, 0x00, 0x00, 0x00, 0x09,
  0x84, 0x00, 0x00, 0x00, 0x09, 0x00, 0x00, 0x00, 0x20, 0x00, 0x00, 0x00,
  0x8c, 0x00, 0x00, 0x00, 0x04, 0x00, 0x00, 0x00, 0x04, 0x00, 0x00, 0x00,
  0xff, 0xff, 0xff, 0xff, 0x64, 0x00, 0x00, 0x00, 0x03, 0x00, 0x00, 0x00,
  0x08, 0x00, 0x00, 0x00, 0x55, 0x00, 0x00, 0x00, 0x73, 0x65, 0x71, 0x75,
  0x65, 0x6e, 0x74, 0x69, 0x61, 0x6c, 0x2f, 0x63, 0x6f, 0x6e, 0x76, 0x32,
  0x64, 0x2f, 0x52, 0x65, 0x6c, 0x75, 0x3b, 0x73, 0x65, 0x71, 0x75, 0x65,
  0x6e, 0x74, 0x69, 0x61, 0x6c, 0x2f, 0x63, 0x6f, 0x6e, 0x76, 0x32, 0x64,
  0x2f, 0x42, 0x69, 0x61, 0x73, 0x41, 0x64, 0x64, 0x3b, 0x73, 0x65, 0x71,
  0x75, 0x65, 0x6e, 0x74, 0x69, 0x61, 0x6c, 0x2f, 0x63, 0x6f, 0x6e, 0x76,
  0x32, 0x64, 0x2f, 0x43, 0x6f, 0x6e, 0x76, 0x32, 0x44, 0x3b, 0x63, 0x6f,
  0x6e, 0x76, 0x32, 0x64, 0x2f, 0x62, 0x69, 0x61, 0x73, 0x00, 0x00, 0x00,
  0x04, 0x00, 0x00, 0x00, 0x01, 0x00, 0x00, 0x00, 0x64, 0x00, 0x00, 0x00,
  0x03, 0x00, 0x00, 0x00, 0x08, 0x00, 0x00, 0x00, 0xd4, 0xf2, 0xff, 0xff,
  0x14, 0x00, 0x00, 0x00, 0x04, 0x00, 0x00, 0x00, 0x01, 0x00, 0x00, 0x00,
  0x80, 0xff, 0xff, 0xff, 0xff, 0xff, 0xff, 0xff, 0x01, 0x00, 0x00, 0x00,
  0x3a, 0x82, 0x8c, 0x3b, 0xde, 0xf3, 0xff, 0xff, 0x04, 0x00, 0x00, 0x00,
  0x08, 0x00, 0x00, 0x00, 0x50, 0x00, 0x00, 0x00, 0xc9, 0xfd, 0xff, 0xff,
  0xd6, 0xf3, 0xff, 0xff, 0x00, 0x00, 0x00, 0x02, 0x24, 0x00, 0x00, 0x00,
  0x08, 0x00, 0x00, 0x00, 0x08, 0x00, 0x00, 0x00, 0x20, 0x00, 0x00, 0x00,
  0x0c, 0x00, 0x00, 0x00, 0x64, 0x65, 0x6e, 0x73, 0x65, 0x5f, 0x31, 0x2f,
  0x62, 0x69, 0x61, 0x73, 0x00, 0x00, 0x00, 0x00, 0x01, 0x00, 0x00, 0x00,
  0x02, 0x00, 0x00, 0x00, 0x3c, 0xf3, 0xff, 0xff, 0x14, 0x00, 0x00, 0x00,
  0x04, 0x00, 0x00, 0x00, 0x01, 0x00, 0x00, 0x00, 0x00, 0x00, 0x00, 0x00,
  0x00, 0x00, 0x00, 0x00, 0x01, 0x00, 0x00, 0x00, 0x04, 0x3b, 0x12, 0x38,
  0x46, 0xf4, 0xff, 0xff, 0x04, 0x00, 0x00, 0x00, 0x10, 0x00, 0x00, 0x00,
  0x7d, 0x94, 0x35, 0x77, 0xb1, 0x69, 0x41, 0x19, 0x7d, 0x0e, 0x11, 0x81,
  0x9f, 0xf4, 0xe7, 0x36, 0x46, 0xf4, 0xff, 0xff, 0x00, 0x00, 0x00, 0x09,
  0x30, 0x00, 0x00, 0x00, 0x07, 0x00, 0x00, 0x00, 0x08, 0x00, 0x00, 0x00,
  0x30, 0x00, 0x00, 0x00, 0x19, 0x00, 0x00, 0x00, 0x73, 0x65, 0x71, 0x75,
  0x65, 0x6e, 0x74, 0x69, 0x61, 0x6c, 0x2f, 0x64, 0x65, 0x6e, 0x73, 0x65,
  0x5f, 0x31, 0x2f, 0x4d, 0x61, 0x74, 0x4d, 0x75, 0x6c, 0x00, 0x00, 0x00,
  0x02, 0x00, 0x00, 0x00, 0x02, 0x00, 0x00, 0x00, 0x08, 0x00, 0x00, 0x00,
  0xbc, 0xf3, 0xff, 0xff, 0x18, 0x00, 0x00, 0x00, 0x04, 0x00, 0x00, 0x00,
  0x01, 0x00, 0x00, 0x00, 0x00, 0x00, 0x00, 0x00, 0x00, 0x00, 0x00, 0x00,
  0x00, 0x00, 0x00, 0x00, 0x01, 0x00, 0x00, 0x00, 0x4d, 0x88, 0xbd, 0x3b,
  0xca, 0xf4, 0xff, 0xff, 0x04, 0x00, 0x00, 0x00, 0x20, 0x00, 0x00, 0x00,
  0x00, 0x00, 0x00, 0x00, 0x9a, 0xfc, 0xff, 0xff, 0x00, 0x00, 0x00, 0x00,
  0x00, 0x00, 0x00, 0x00, 0x00, 0x00, 0x00, 0x00, 0xe3, 0x02, 0x00, 0x00,
  0xe2, 0xfc, 0xff, 0xff, 0x70, 0xf7, 0xff, 0xff, 0xda, 0xf4, 0xff, 0xff,
  0x00, 0x00, 0x00, 0x02, 0x20, 0x00, 0x00, 0x00, 0x06, 0x00, 0x00, 0x00,
  0x08, 0x00, 0x00, 0x00, 0x1c, 0x00, 0x00, 0x00, 0x0a, 0x00, 0x00, 0x00,
  0x64, 0x65, 0x6e, 0x73, 0x65, 0x2f, 0x62, 0x69, 0x61, 0x73, 0x00, 0x00,
  0x01, 0x00, 0x00, 0x00, 0x08, 0x00, 0x00, 0x00, 0x3c, 0xf4, 0xff, 0xff,
  0x18, 0x00, 0x00, 0x00, 0x04, 0x00, 0x00, 0x00, 0x01, 0x00, 0x00, 0x00,
  0x00, 0x00, 0x00, 0x00, 0x00, 0x00, 0x00, 0x00, 0x00, 0x00, 0x00, 0x00,
  0x01, 0x00, 0x00, 0x00, 0x7c, 0x57, 0xb5, 0x36, 0x4a, 0xf5, 0xff, 0xff,
  0x04, 0x00, 0x00, 0x00, 0x40, 0x08, 0x00, 0x00, 0x0b, 0x95, 0xfa, 0xd5,
  0x1f, 0xed, 0x69, 0xed, 0xc3, 0x0c, 0x42, 0xd3, 0x07, 0xc5, 0x5d, 0x8a,
  0x55, 0xcc, 0x32, 0x8d, 0xae, 0x29, 0x14, 0x22, 0xb4, 0x16, 0xec, 0x3e,
  0xc4, 0x70, 0xa5, 0xae, 0x13, 0x05, 0xf9, 0x69, 0x16, 0x6d, 0x9a, 0x17,
  0xed, 0x9b, 0xac, 0xf7, 0xa8, 0x55, 0xd4, 0x10, 0xb6, 0x2f, 0x70, 0x9f,
  0xcc, 0x04, 0x8d, 0x4f, 0x8d, 0x6d, 0xfd, 0x9f, 0x2b, 0xc7, 0x36, 0xfb,
  0x33, 0x01, 0x2b, 0x0f, 0x66, 0xf6, 0xad, 0xdf, 0xb9, 0x33, 0x27, 0x9d,
  0xbe, 0x67, 0x38, 0xbe, 0x5f, 0xae, 0xf3, 0xe5, 0xde, 0x3a, 0xe3, 0x30,
  0x05, 0xc8, 0x0c, 0xd2, 0x8b, 0x1f, 0xfd, 0xe0, 0x12, 0xdd, 0x70, 0xc5,
  0xa1, 0x93, 0x95, 0x16, 0x34, 0xfd, 0xe5, 0xf3, 0xa2, 0x4f, 0xfd, 0x96,
  0x5a, 0x3c, 0xba, 0x59, 0xe3, 0x9a, 0xc3, 0x28, 0x1b, 0xa1, 0x25, 0x3c,
  0x96, 0x56, 0x1e, 0xef, 0x5e, 0x57, 0x36, 0x02, 0xf7, 0x9a, 0x0c, 0xb3,
  0xd0, 0x3a, 0x49, 0xed, 0x2e, 0x8e, 0x8e, 0x26, 0x3f, 0xa4, 0xdb, 0x50,
  0xf5, 0x2b, 0xbc, 0xc6, 0x45, 0xe8, 0xb6, 0x53, 0xb7, 0xed, 0x0c, 0x8b,
  0x19, 0x64, 0xea, 0xda, 0xcb, 0x38, 0xfd, 0xdd, 0xb3, 0x4e, 0xdd, 0xc7,
  0x98, 0x20, 0x98, 0xe4, 0xf4, 0x2c, 0x48, 0xe1, 0x33, 0x0a, 0x01, 0xe2,
  0x32, 0xa7, 0x15, 0x08, 0x33, 0x8d, 0x65, 0x42, 0x02, 0x4b, 0x6a, 0x55,
  0xde, 0x8e, 0x18, 0x52, 0x38, 0xb0, 0x63, 0x4e, 0xa1, 0x98, 0xda, 0x6e,
  0x1e, 0x3f, 0x99, 0x5c, 0xa2, 0x3e, 0xb9, 0xd5, 0x8d, 0x35, 0x47, 0x5c,
  0x18, 0x5b, 0x04, 0xf4, 0x5f, 0x97, 0xd7, 0x46, 0x56, 0x99, 0xf4, 0x20,
  0x40, 0xcc, 0x3d, 0x4f, 0xbe, 0xee, 0xef, 0x54, 0xc6, 0x38, 0x08, 0x31,
  0xf9, 0x14, 0x2d, 0xbd, 0xa0, 0xaa, 0xa0, 0xab, 0x3f, 0x5a, 0x57, 0xc9,
  0x62, 0x9a, 0x94, 0x3a, 0x98, 0xf4, 0xc6, 0x59, 0x27, 0x1b, 0x02, 0xe3,
  0x5f, 0x6a, 0x70, 0xca, 0xe3, 0xf0, 0xd8, 0x96, 0xbd, 0x2e, 0x4f, 0xb4,
  0x00, 0x43, 0x6d, 0xa0, 0xb4, 0xa4, 0x3e, 0xdf, 0xb3, 0xb9, 0x10, 0x49,
  0x13, 0xa4, 0x09, 0xab, 0xa5, 0x3c, 0x7f, 0x9b, 0x61, 0x20, 0xde, 0xf2,
  0x26, 0x25, 0xa6, 0x50, 0x1b, 0x2f, 0xa9, 0xb0, 0x51, 0x6c, 0x0d, 0x0c,
  0x6f, 0x31, 0x72, 0xa7, 0x58, 0x70, 0x31, 0x8d, 0x99, 0x98, 0xff, 0x08,
  0x96, 0x96, 0x51, 0xd8, 0xa1, 0xf1, 0x32, 0x2f, 0x14, 0x41, 0xcd, 0xef,
  0xdd, 0xf8, 0x75, 0x0c, 0xb3, 0xe5, 0x9c, 0x17, 0x5d, 0x04, 0x43, 0xe1,
  0xa2, 0xe0, 0xe8, 0xa7, 0x2e, 0xbf, 0x34, 0xb1, 0xe9, 0x9f, 0xd4, 0x58,
  0x6f, 0x22, 0xf4, 0xc6, 0x4d, 0x74, 0x06, 0x98, 0x16, 0xdb, 0x28, 0x25,
  0xd4, 0x6e, 0x58, 0xe0, 0x14, 0x5c, 0x6a, 0xb3, 0x91, 0x0e, 0xbc, 0xca,
  0xf8, 0xf3, 0xe8, 0xc7, 0x36, 0x05, 0x0d, 0x90, 0x29, 0x0c, 0x2d, 0xe4,
  0x07, 0xeb, 0x1e, 0xde, 0x77, 0x0c, 0xb9, 0xbb, 0xb1, 0xbe, 0xf4, 0xd0,
  0xa9, 0xc4, 0x5a, 0x8c, 0x4b, 0x74, 0x75, 0x4b, 0x22, 0x8f, 0x6b, 0xf3,
  0x95, 0xd4, 0xa5, 0x02, 0xa3, 0x58, 0x6c, 0xb2, 0x70, 0xc0, 0xc8, 0x3b,
  0x73, 0xce, 0x09, 0x6a, 0x48, 0x08, 0x65, 0xd7, 0x23, 0xf7, 0xfc, 0x16,
  0x8f, 0x5c, 0x44, 0xc1, 0xb2, 0x1b, 0x4f, 0x2f, 0x17, 0xda, 0x1b, 0xe0,
  0x28, 0x6a, 0xed, 0xd1, 0xb4, 0x53, 0x3a, 0x21, 0xc0, 0x44, 0xf9, 0x58,
  0x95, 0xd9, 0x08, 0xa4, 0xcf, 0xac, 0x4b, 0xcd, 0x32, 0xa4, 0xde, 0x4e,
  0x52, 0x1f, 0xf7, 0xf3, 0xc1, 0x64, 0x10, 0x4c, 0xf8, 0xc1, 0x3f, 0xde,
  0x59, 0xae, 0x70, 0xd6, 0x4b, 0x44, 0xdd, 0x64, 0xd2, 0x52, 0xfd, 0x5e,
  0x03, 0x51, 0xb3, 0xa8, 0xa7, 0x6b, 0x74, 0xf2, 0xe9, 0x3b, 0xc8, 0xec,
  0xea, 0xd1, 0xf0, 0xb5, 0x71, 0x4d, 0x42, 0x19, 0x93, 0x42, 0x27, 0x19,
  0xb2, 0x3c, 0xc9, 0x10, 0xda, 0x4a, 0x98, 0x1e, 0x36, 0x06, 0xfa, 0x92,
  0xec, 0x6a, 0x0c, 0xc7, 0xb4, 0xd9, 0x8f, 0xb5, 0x19, 0xa5, 0x47, 0xde,
  0x95, 0x41, 0x33, 0x3c, 0xdb, 0x2c, 0x95, 0xce, 0x25, 0x15, 0xb1, 0x3b,
  0xdb, 0x4f, 0x24, 0xda, 0x13, 0xd9, 0xee, 0x71, 0xdc, 0x5d, 0x41, 0xd7,
  0xe5, 0xc5, 0x3d, 0x8c, 0xa8, 0x9a, 0x0c, 0xbb, 0x1f, 0xfa, 0x6f, 0xce,
  0x0a, 0xbf, 0xd5, 0x41, 0x06, 0x28, 0xe9, 0xda, 0xa6, 0x01, 0x51, 0x2b,
  0xde, 0xd9, 0xf5, 0xb6, 0xaf, 0xcd, 0x18, 0x75, 0xe7, 0xdd, 0x22, 0x2f,
  0xb4, 0xc2, 0xd0, 0xe1, 0x97, 0xe3, 0xf8, 0xec, 0xe9, 0x14, 0xb5, 0xa1,
  0x0c, 0x9d, 0xdf, 0x71, 0xe8, 0xf5, 0xd7, 0x9c, 0xcd, 0x6d, 0x46, 0x0d,
  0xce, 0xbe, 0xf5, 0xaa, 0xd7, 0x18, 0x92, 0xf5, 0x48, 0x5a, 0xa9, 0x66,
  0x58, 0xa9, 0xb7, 0xce, 0x1b, 0x1f, 0x2c, 0xf7, 0x03, 0xc2, 0x65, 0x5d,
  0xbf, 0xeb, 0x47, 0xad, 0xa7, 0x3c, 0x16, 0xc4, 0xcd, 0x02, 0x23, 0x14,
  0x9b, 0x53, 0x40, 0x94, 0xf2, 0x0a, 0x5c, 0xa5, 0xa8, 0xd4, 0xc4, 0xf9,
  0xf3, 0xb8, 0xc9, 0xf0, 0x0a, 0x27, 0xd8, 0x2a, 0x2c, 0xc5, 0xa3, 0xde,
  0xca, 0x11, 0x8b, 0xe6, 0x40, 0x70, 0xb7, 0x43, 0xee, 0x18, 0xeb, 0x55,
  0xad, 0xc3, 0x0f, 0x3e, 0x02, 0x9f, 0xcc, 0x55, 0x30, 0x32, 0xdd, 0x52,
  0x62, 0x63, 0xc3, 0xe5, 0x67, 0x41, 0x4a, 0x6b, 0xa4, 0xd8, 0x39, 0xc8,
  0x43, 0x91, 0x66, 0xbc, 0x27, 0x48, 0x12, 0xf8, 0xd5, 0x4f, 0x76, 0x5f,
  0x48, 0x1e, 0xeb, 0xa2, 0xd9, 0x24, 0xcd, 0x16, 0xb4, 0x42, 0xdb, 0xeb,
  0x35, 0x63, 0xce, 0x14, 0x25, 0x36, 0x37, 0xce, 0x32, 0x9c, 0xce, 0xcc,
  0x2a, 0x74, 0xce, 0x67, 0xee, 0x36, 0xf6, 0x2e, 0x0a, 0x4f, 0x0d, 0x35,
  0x58, 0xf3, 0x9c, 0xb8, 0xc3, 0x6b, 0xd3, 0xff, 0xd7, 0x3b, 0x56, 0x29,
  0x8c, 0x9a, 0xfc, 0xdb, 0x56, 0xf9, 0xe9, 0x09, 0x49, 0x61, 0xaa, 0x30,
  0x0c, 0xe9, 0xf0, 0x1b, 0xa3, 0xff, 0x8c, 0x28, 0x0b, 0x4b, 0x63, 0x3c,
  0x9c, 0x43, 0x98, 0x11, 0x9a, 0xdd, 0x03, 0xd6, 0xdb, 0x28, 0x1d, 0x10,
  0x49, 0xd6, 0x5f, 0x75, 0xc6, 0xde, 0x12, 0x00, 0x6f, 0xe4, 0x28, 0x64,
  0xe5, 0x9d, 0x12, 0xc0, 0x75, 0x00, 0x41, 0xef, 0xd5, 0xa5, 0x5d, 0xf0,
  0xa3, 0xe1, 0xec, 0x6d, 0x1c, 0x32, 0x56, 0x1b, 0x34, 0x5e, 0x00, 0xbb,
  0x48, 0x34, 0x1b, 0x52, 0x27, 0xe2, 0x53, 0x05, 0xd1, 0x6f, 0x6a, 0xef,
  0xcd, 0x38, 0x62, 0x6d, 0x92, 0xf5, 0xb6, 0xc7, 0x71, 0xda, 0xaf, 0x34,
  0x96, 0xd6, 0x04, 0x00, 0xcd, 0xe2, 0xc5, 0x2b, 0xa0, 0xb8, 0xdb, 0xd6,
  0x2b, 0xba, 0xca, 0xde, 0xe5, 0x61, 0xd1, 0xd1, 0x62, 0xf2, 0x1a, 0x4d,
  0x0a, 0xb1, 0xe0, 0xb7, 0x98, 0xad, 0xe0, 0x50, 0xb9, 0x96, 0x55, 0x36,
  0x8a, 0xd3, 0xa1, 0x38, 0x37, 0x5d, 0x44, 0xbf, 0x8f, 0x27, 0xca, 0xeb,
  0x00, 0x2f, 0x1c, 0xc8, 0x43, 0xb8, 0xe5, 0xb9, 0x8f, 0xa0, 0xcd, 0x72,
  0xcc, 0x04, 0x76, 0xe0, 0x0e, 0x60, 0x4c, 0x05, 0x91, 0x67, 0x09, 0xdf,
  0xf0, 0xb7, 0x03, 0xeb, 0x3e, 0x35, 0x42, 0xb4, 0xd0, 0x2f, 0xf1, 0xdd,
  0xd3, 0x6e, 0xec, 0x73, 0x46, 0x13, 0xa1, 0x52, 0x05, 0x08, 0xc6, 0x41,
  0x4a, 0x02, 0xb9, 0x0d, 0x92, 0x2b, 0x37, 0xd0, 0xc4, 0x28, 0x25, 0x9f,
  0xa1, 0xd9, 0xb6, 0x5c, 0xc4, 0x5a, 0x05, 0x9c, 0x62, 0xc1, 0xf0, 0x38,
  0x66, 0x2d, 0xdc, 0x06, 0x98, 0x39, 0xfa, 0x43, 0x6c, 0x58, 0x9e, 0x00,
  0xea, 0x90, 0x0e, 0x2c, 0x4d, 0x20, 0x9a, 0xe1, 0x8c, 0x6d, 0x51, 0xd9,
  0x19, 0x11, 0xc3, 0x5d, 0x13, 0xc6, 0xa7, 0xf0, 0x97, 0xb7, 0x44, 0x61,
  0x06, 0xd2, 0xb8, 0xd7, 0xa8, 0x95, 0xfd, 0xb7, 0x10, 0xb2, 0xcd, 0x2a,
  0x51, 0xdd, 0x9a, 0x11, 0xfb, 0x2b, 0x06, 0xf1, 0xd0, 0xe3, 0xfc, 0x98,
  0x50, 0x4d, 0xeb, 0x3f, 0xc8, 0x8e, 0x3c, 0xd4, 0xf1, 0x05, 0xa3, 0xab,
  0x11, 0x6f, 0x70, 0x23, 0x9f, 0xd9, 0x20, 0xce, 0xcf, 0x45, 0x3b, 0x11,
  0x0e, 0x3a, 0x1d, 0x26, 0x3d, 0x55, 0x4a, 0x56, 0x09, 0x49, 0x9f, 0x52,
  0x99, 0x8e, 0xcd, 0xd0, 0xcc, 0xd0, 0x30, 0x3c, 0xb6, 0x1b, 0x15, 0x61,
  0x09, 0x41, 0x35, 0x97, 0xad, 0xe8, 0xfe, 0x48, 0x38, 0x38, 0xf8, 0xaf,
  0xf8, 0x5b, 0x33, 0xfb, 0x92, 0xb8, 0x95, 0xdf, 0x5a, 0x14, 0xee, 0x04,
  0xfb, 0xf9, 0x3d, 0x54, 0x61, 0xd7, 0x2b, 0x5d, 0xd1, 0x5e, 0x30, 0x11,
  0xff, 0x11, 0x6f, 0x28, 0x0d, 0x71, 0xd4, 0x23, 0xfd, 0x3d, 0x01, 0xd5,
  0x9e, 0x42, 0x56, 0x0f, 0x99, 0x93, 0xa1, 0x56, 0x50, 0xcb, 0x67, 0x1e,
  0x92, 0x3f, 0x0b, 0xbc, 0xfc, 0x17, 0x27, 0xd8, 0xda, 0x0b, 0xef, 0xa5,
  0x6c, 0xd9, 0x06, 0x9b, 0x2d, 0xea, 0x28, 0xde, 0x9c, 0xe7, 0xc5, 0x02,
  0x6c, 0x97, 0xf1, 0x71, 0x24, 0xbc, 0xfa, 0x0f, 0x10, 0xa5, 0x0f, 0xe7,
  0xa7, 0x4a, 0xf6, 0xde, 0x5b, 0xaf, 0x99, 0xe8, 0x0d, 0x15, 0x09, 0x9b,
  0x5c, 0x1f, 0x23, 0x41, 0x01, 0x08, 0xd2, 0x91, 0xe8, 0x1d, 0x6d, 0xd6,
  0x29, 0x04, 0x98, 0xf7, 0xe8, 0xc0, 0x3f, 0x2e, 0xf1, 0xe0, 0xb6, 0x9d,
  0xe7, 0x1d, 0x1d, 0x6a, 0x50, 0x1c, 0x8f, 0x95, 0x12, 0xaf, 0x66, 0x17,
  0xdb, 0x5c, 0x41, 0x68, 0x14, 0x9d, 0x0d, 0xab, 0xcf, 0x95, 0x8d, 0xb6,
  0xe8, 0xc6, 0xa3, 0x3c, 0xe1, 0xef, 0x1d, 0x90, 0x97, 0x53, 0xdf, 0x30,
  0x17, 0x2b, 0x49, 0xa4, 0x6d, 0x52, 0xaa, 0x96, 0x12, 0x0b, 0x07, 0x43,
  0x27, 0xd7, 0x42, 0xc7, 0xc7, 0x8b, 0xef, 0xb7, 0x66, 0x6f, 0xf0, 0xed,
  0x5f, 0x1e, 0xc0, 0x97, 0xb1, 0x25, 0xf1, 0xc2, 0x59, 0x07, 0xdf, 0x9f,
  0x66, 0x1f, 0x25, 0x2e, 0x46, 0xfb, 0x8d, 0x02, 0xb1, 0x8d, 0x20, 0xbc,
  0xd3, 0xe6, 0xfe, 0x06, 0x16, 0x5c, 0xf4, 0xf7, 0x13, 0x45, 0xb8, 0xde,
  0x6c, 0xc7, 0x5d, 0x29, 0x6f, 0x38, 0x58, 0xa1, 0xab, 0x90, 0x0a, 0xc3,
  0x4b, 0x23, 0x8e, 0xc8, 0x03, 0xac, 0x35, 0xb7, 0x3b, 0x74, 0xbc, 0x17,
  0x2a, 0x63, 0x73, 0xea, 0x57, 0xf9, 0x52, 0xc0, 0x96, 0x2d, 0x60, 0xa5,
  0x63, 0x8e, 0xbb, 0xe1, 0x1c, 0x30, 0xac, 0x74, 0x97, 0x38, 0x85, 0x2d,
  0xe5, 0x0b, 0x15, 0xff, 0x44, 0xbc, 0x43, 0x0f, 0xf4, 0x6e, 0x96, 0xc9,
  0x12, 0x52, 0x8b, 0xe9, 0x8e, 0xf1, 0xb5, 0x00, 0x95, 0x41, 0x8e, 0x72,
  0x31, 0xb6, 0xfb, 0xac, 0xc5, 0xd2, 0x8a, 0x23, 0x66, 0xc2, 0x6b, 0x3d,
  0x1a, 0x31, 0x6b, 0x56, 0xc9, 0x41, 0x2c, 0xdd, 0xb0, 0xde, 0x23, 0x23,
  0x49, 0x5d, 0x3b, 0x28, 0x2e, 0x5d, 0x8b, 0xf4, 0x6a, 0xd6, 0x51, 0xbf,
  0x4f, 0x46, 0x9b, 0x03, 0x55, 0x6d, 0x03, 0xce, 0x5b, 0xc6, 0xed, 0x29,
  0x27, 0x8c, 0x0e, 0x29, 0xa8, 0xbd, 0xb7, 0x9c, 0x4d, 0x42, 0xd3, 0xa3,
  0xfe, 0x58, 0x55, 0x9b, 0xf3, 0x71, 0x43, 0x57, 0x33, 0xaa, 0xbf, 0xe6,
  0x9f, 0x95, 0x4c, 0xda, 0xe5, 0xe5, 0x88, 0x61, 0x90, 0xf7, 0xf3, 0xf4,
  0xf5, 0x1f, 0x52, 0x9d, 0xdf, 0x6f, 0x07, 0x6d, 0xaa, 0xb8, 0xd8, 0x1d,
  0x1a, 0xb4, 0x9d, 0xd8, 0xb0, 0x0d, 0x03, 0x8d, 0xac, 0xdc, 0x56, 0xb4,
  0x47, 0xee, 0xce, 0x5c, 0xe6, 0xb7, 0x1e, 0xa3, 0x01, 0x21, 0xa5, 0x2a,
  0x5b, 0x49, 0xe3, 0x92, 0x62, 0x61, 0xa6, 0xbb, 0x39, 0xdd, 0xf9, 0x5d,
  0x49, 0x97, 0x9c, 0xc5, 0x08, 0x3f, 0xa2, 0xbf, 0xee, 0xac, 0xee, 0x21,
  0xb4, 0xbb, 0xab, 0xb9, 0x3f, 0x49, 0xbd, 0x03, 0x60, 0xde, 0x2c, 0x27,
  0x94, 0xfe, 0x32, 0x13, 0xe6, 0xe7, 0xe2, 0x01, 0x9a, 0x4a, 0xb8, 0xd5,
  0x9a, 0x52, 0xe8, 0xec, 0xf0, 0x2c, 0xf6, 0xc7, 0xb0, 0x6a, 0x46, 0x27,
  0xc7, 0xc2, 0xf1, 0x16, 0x8a, 0x28, 0xac, 0xbf, 0x3a, 0x5a, 0xcf, 0xac,
  0xba, 0x9d, 0xf9, 0xae, 0x57, 0xd7, 0xcb, 0xc3, 0x05, 0x2a, 0xdd, 0xa0,
  0x6e, 0x1a, 0xac, 0xbc, 0x14, 0xc7, 0xcc, 0xf4, 0x47, 0x96, 0xf2, 0x90,
  0x2a, 0xf4, 0x46, 0x49, 0x8b, 0x6a, 0x9a, 0x64, 0x53, 0x15, 0x65, 0xd8,
  0x07, 0x3a, 0xb9, 0x6d, 0x03, 0x66, 0xdd, 0x89, 0x44, 0x2e, 0x4e, 0xb1,
  0xe2, 0xea, 0xbf, 0x03, 0x36, 0x11, 0x58, 0xeb, 0x4d, 0xb7, 0x6c, 0x10,
  0xc0, 0x9f, 0x34, 0x5b, 0x3c, 0xc2, 0x05, 0x0a, 0x19, 0x20, 0xd9, 0x18,
  0xa4, 0x51, 0x6b, 0x29, 0x63, 0xed, 0x22, 0x95, 0x19, 0xab, 0xcd, 0xb3,
  0x2a, 0xcb, 0xb5, 0xd1, 0xc9, 0x26, 0x17, 0x1c, 0xdd, 0x00, 0x5d, 0x58,
  0x3e, 0xee, 0x1c, 0x3c, 0xd6, 0xa5, 0x8e, 0x2f, 0xd4, 0x50, 0x8b, 0x22,
  0xfb, 0x57, 0xd8, 0xd0, 0x01, 0xe9, 0x0a, 0xb0, 0x2b, 0x1c, 0x1b, 0x5e,
  0xef, 0x39, 0x98, 0xb1, 0x5b, 0x3e, 0x38, 0x63, 0xc1, 0x00, 0x35, 0xdf,
  0x29, 0x55, 0xec, 0xe9, 0x3d, 0xfa, 0xb3, 0xe3, 0xab, 0x6d, 0x69, 0x0d,
  0xb7, 0xb6, 0x4b, 0xd6, 0xf2, 0x2f, 0x49, 0x6c, 0xa3, 0xe0, 0xda, 0xce,
  0xe2, 0xc1, 0xda, 0x95, 0x94, 0xe4, 0x02, 0xec, 0xdb, 0xe4, 0x02, 0x29,
  0x38, 0x8f, 0x69, 0x92, 0xa3, 0x2f, 0x44, 0xbc, 0x1e, 0x17, 0x27, 0x69,
  0x8c, 0x1e, 0x38, 0x51, 0xf3, 0x4b, 0x35, 0x5c, 0x13, 0x4c, 0x8c, 0x3e,
  0xa0, 0xdc, 0x4f, 0xc1, 0xcc, 0xa7, 0x63, 0x56, 0x2e, 0x1f, 0xd9, 0x4c,
  0x8a, 0x99, 0xd7, 0xd1, 0xd7, 0xb8, 0xb8, 0xf9, 0x00, 0xe7, 0x89, 0x8f,
  0x0f, 0x4d, 0xfe, 0x68, 0xa8, 0xcb, 0x43, 0xd5, 0x4d, 0xa7, 0x87, 0xfa,
  0x44, 0x36, 0x62, 0xad, 0x51, 0xa6, 0x8c, 0xec, 0x8f, 0xb7, 0x22, 0xc1,
  0xac, 0x8d, 0xd2, 0x3d, 0xbb, 0xeb, 0x03, 0xb1, 0x4a, 0x2a, 0x30, 0x2c,
  0x25, 0x90, 0x26, 0x8c, 0x8a, 0x10, 0x5f, 0x1b, 0x5a, 0xb8, 0xb6, 0x8f,
  0x69, 0xaa, 0xe0, 0x5f, 0x6c, 0x3a, 0x98, 0x67, 0x84, 0x26, 0xf5, 0xd6,
  0xae, 0xf7, 0xdb, 0x0a, 0x8a, 0xcd, 0x43, 0x95, 0xc1, 0xb4, 0x52, 0xd0,
  0xa2, 0x32, 0x68, 0x04, 0x0d, 0x50, 0x84, 0x0b, 0x1a, 0xf9, 0xb5, 0xd7,
  0x3f, 0x22, 0x18, 0xbe, 0xd9, 0x07, 0x28, 0x69, 0xe6, 0xdd, 0x23, 0x65,
  0x58, 0x4d, 0xf0, 0xb8, 0x47, 0x3a, 0xa7, 0xcf, 0xce, 0xf2, 0x82, 0xa2,
  0x15, 0xea, 0xdc, 0xa7, 0xf9, 0xf2, 0x57, 0x9e, 0x5a, 0x8f, 0x31, 0x9d,
  0xcb, 0xc8, 0x3c, 0xd0, 0xb1, 0x47, 0x25, 0xea, 0xa5, 0xb2, 0x52, 0x08,
  0x36, 0x98, 0xc9, 0xa6, 0xaf, 0xa5, 0x38, 0x16, 0x34, 0x05, 0x94, 0xc8,
  0x56, 0xb9, 0x9c, 0x5f, 0xe4, 0xc6, 0xb4, 0x39, 0x8a, 0xb5, 0xd4, 0xc9,
  0x8d, 0xc9, 0xba, 0x41, 0x85, 0x14, 0x69, 0xe8, 0x5d, 0x30, 0xaf, 0x17,
  0x39, 0xfa, 0xfb, 0x66, 0x0d, 0x59, 0x36, 0x3d, 0xf6, 0x1d, 0xe2, 0x67,
  0x0d, 0x68, 0xf4, 0x95, 0xf4, 0xec, 0x3b, 0x3d, 0x27, 0x5d, 0xf2, 0x9b,
  0x2b, 0x48, 0x3a, 0x3a, 0xc0, 0x9c, 0xa8, 0x12, 0x1f, 0x56, 0x8d, 0xca,
  0x12, 0x00, 0x91, 0xc2, 0xdf, 0x59, 0x56, 0x6b, 0xc1, 0x56, 0x21, 0x81,
  0x3c, 0x67, 0x4c, 0x4e, 0x6b, 0xe2, 0xc2, 0xaa, 0x95, 0xe0, 0xb4, 0x8a,
  0x4a, 0x11, 0x84, 0x68, 0xa4, 0x38, 0xab, 0x6a, 0x99, 0xf1, 0x3b, 0xc9,
  0x9b, 0x3b, 0xa3, 0xfe, 0x4e, 0xbd, 0x48, 0xed, 0x28, 0xa5, 0x5b, 0x2d,
  0x2a, 0xed, 0x97, 0xd8, 0x4d, 0x59, 0x67, 0xa0, 0xa9, 0x83, 0x48, 0x4b,
  0xb7, 0xff, 0xcb, 0x9e, 0xd9, 0x29, 0x11, 0x8a, 0x54, 0x00, 0xfa, 0x87,
  0x64, 0x82, 0xfb, 0xf2, 0x15, 0x34, 0x3b, 0xdf, 0x7a, 0xfd, 0xff, 0xff,
  0x00, 0x00, 0x00, 0x09, 0x2c, 0x00, 0x00, 0x00, 0x05, 0x00, 0x00, 0x00,
  0x08, 0x00, 0x00, 0x00, 0x2c, 0x00, 0x00, 0x00, 0x17, 0x00, 0x00, 0x00,
  0x73, 0x65, 0x71, 0x75, 0x65, 0x6e, 0x74, 0x69, 0x61, 0x6c, 0x2f, 0x64,
  0x65, 0x6e, 0x73, 0x65, 0x2f, 0x4d, 0x61, 0x74, 0x4d, 0x75, 0x6c, 0x00,
  0x02, 0x00, 0x00, 0x00, 0x08, 0x00, 0x00, 0x00, 0x08, 0x01, 0x00, 0x00,
  0xec, 0xfc, 0xff, 0xff, 0x18, 0x00, 0x00, 0x00, 0x04, 0x00, 0x00, 0x00,
  0x01, 0x00, 0x00, 0x00, 0x00, 0x00, 0x00, 0x00, 0x00, 0x00, 0x00, 0x00,
  0x00, 0x00, 0x00, 0x00, 0x01, 0x00, 0x00, 0x00, 0xaa, 0x32, 0xa5, 0x3a,
  0xfa, 0xfd, 0xff, 0xff, 0x04, 0x00, 0x00, 0x00, 0x20, 0x00, 0x00, 0x00,
  0x89, 0x00, 0x00, 0x00, 0xed, 0xfa, 0xff, 0xff, 0x8e, 0xfe, 0xff, 0xff,
  0x0d, 0x06, 0x00, 0x00, 0x5d, 0xfe, 0xff, 0xff, 0x63, 0xf7, 0xff, 0xff,
  0xcf, 0xfa, 0xff, 0xff, 0x11, 0xfc, 0xff, 0xff, 0x0a, 0xfe, 0xff, 0xff,
  0x00, 0x00, 0x00, 0x02, 0x20, 0x00, 0x00, 0x00, 0x04, 0x00, 0x00, 0x00,
  0x08, 0x00, 0x00, 0x00, 0x1c, 0x00, 0x00, 0x00, 0x0b, 0x00, 0x00, 0x00,
  0x63, 0x6f, 0x6e, 0x76, 0x32, 0x64, 0x2f, 0x62, 0x69, 0x61, 0x73, 0x00,
  0x01, 0x00, 0x00, 0x00, 0x08, 0x00, 0x00, 0x00, 0x6c, 0xfd, 0xff, 0xff,
  0x50, 0x00, 0x00, 0x00, 0x04, 0x00, 0x00, 0x00, 0x08, 0x00, 0x00, 0x00,
  0x00, 0x00, 0x00, 0x00, 0x00, 0x00, 0x00, 0x00, 0x00, 0x00, 0x00, 0x00,
  0x00, 0x00, 0x00, 0x00, 0x00, 0x00, 0x00, 0x00, 0x00, 0x00, 0x00, 0x00,
  0x00, 0x00, 0x00, 0x00, 0x00, 0x00, 0x00, 0x00, 0x00, 0x00, 0x00, 0x00,
  0x00, 0x00, 0x00, 0x00, 0x00, 0x00, 0x00, 0x00, 0x00, 0x00, 0x00, 0x00,
  0x00, 0x00, 0x00, 0x00, 0x00, 0x00, 0x00, 0x00, 0x00, 0x00, 0x00, 0x00,
  0x00, 0x00, 0x00, 0x00, 0x00, 0x00, 0x00, 0x00, 0x08, 0x00, 0x00, 0x00,
  0x3f, 0x40, 0xec, 0x36, 0x73, 0xc0, 0xd6, 0x36, 0x1e, 0x30, 0x36, 0x37,
  0x39, 0xc8, 0xeb, 0x36, 0x73, 0x10, 0x13, 0x37, 0x30, 0x3a, 0x0f, 0x37,
  0x48, 0xde, 0x35, 0x37, 0xc4, 0x17, 0xc8, 0x36, 0xce, 0xfe, 0xff, 0xff,
  0x04, 0x00, 0x00, 0x00, 0x60, 0x00, 0x00, 0x00, 0x16, 0x6b, 0x9c, 0x8c,
  0x81, 0x16, 0xa5, 0x7a, 0x1e, 0x52, 0x05, 0x11, 0xf7, 0x81, 0x40, 0x12,
  0x11, 0x89, 0x2c, 0xbf, 0x37, 0x57, 0x5f, 0xfa, 0xb5, 0x1a, 0xf8, 0x1c,
  0xfe, 0xe9, 0x03, 0xcf, 0xfe, 0x7f, 0x54, 0xfd, 0x0e, 0x02, 0x62, 0x81,
  0xdd, 0xd0, 0xdd, 0xa3, 0x95, 0x19, 0x07, 0x36, 0x2f, 0x7f, 0x1d, 0x36,
  0x3b, 0x30, 0xa8, 0x9e, 0xab, 0xf5, 0x3d, 0xc2, 0x58, 0x6e, 0xb0, 0x9d,
  0x66, 0x76, 0xcc, 0x60, 0xf6, 0x7f, 0xce, 0x13, 0x7f, 0x41, 0xb3, 0xbf,
  0x08, 0x47, 0xb9, 0xbd, 0x4b, 0xea, 0x1c, 0x24, 0x53, 0xad, 0xce, 0xec,
  0x6e, 0xa1, 0x92, 0xa9, 0x21, 0xcd, 0x3d, 0x81, 0x1e, 0xff, 0xff, 0xff,
  0x00, 0x00, 0x00, 0x09, 0x30, 0x00, 0x00, 0x00, 0x03, 0x00, 0x00, 0x00,
  0x08, 0x00, 0x00, 0x00, 0x38, 0x00, 0x00, 0x00, 0x18, 0x00, 0x00, 0x00,
  0x73, 0x65, 0x71, 0x75, 0x65, 0x6e, 0x74, 0x69, 0x61, 0x6c, 0x2f, 0x63,
  0x6f, 0x6e, 0x76, 0x32, 0x64, 0x2f, 0x43, 0x6f, 0x6e, 0x76, 0x32, 0x44,
  0x00, 0x00, 0x00, 0x00, 0x04, 0x00, 0x00, 0x00, 0x08, 0x00, 0x00, 0x00,
  0x03, 0x00, 0x00, 0x00, 0x04, 0x00, 0x00, 0x00, 0x01, 0x00, 0x00, 0x00,
  0x9c, 0xfe, 0xff, 0xff, 0x50, 0x00, 0x00, 0x00, 0x04, 0x00, 0x00, 0x00,
  0x08, 0x00, 0x00, 0x00, 0x00, 0x00, 0x00, 0x00, 0x00, 0x00, 0x00, 0x00,
  0x00, 0x00, 0x00, 0x00, 0x00, 0x00, 0x00, 0x00, 0x00, 0x00, 0x00, 0x00,
  0x00, 0x00, 0x00, 0x00, 0x00, 0x00, 0x00, 0x00, 0x00, 0x00, 0x00, 0x00,
  0x00, 0x00, 0x00, 0x00, 0x00, 0x00, 0x00, 0x00, 0x00, 0x00, 0x00, 0x00,
  0x00, 0x00, 0x00, 0x00, 0x00, 0x00, 0x00, 0x00, 0x00, 0x00, 0x00, 0x00,
  0x00, 0x00, 0x00, 0x00, 0x00, 0x00, 0x00, 0x00, 0x00, 0x00, 0x00, 0x00,
  0x08, 0x00, 0x00, 0x00, 0xc4, 0x56, 0xeb, 0x3a, 0x38, 0xec, 0xd5, 0x3a,
  0x11, 0x7c, 0x35, 0x3b, 0x35, 0xdf, 0xea, 0x3a, 0x1c, 0x7f, 0x12, 0x3b,
  0xa4, 0xac, 0x0e, 0x3b, 0x8c, 0x2a, 0x35, 0x3b, 0x05, 0x52, 0xc7, 0x3a,
  0x00, 0x00, 0x06, 0x00, 0x08, 0x00, 0x04, 0x00, 0x06, 0x00, 0x00, 0x00,
  0x04, 0x00, 0x00, 0x00, 0x08, 0x00, 0x00, 0x00, 0xff, 0xff, 0xff, 0xff,
  0x08, 0x01, 0x00, 0x00, 0x00, 0x00, 0x0e, 0x00, 0x18, 0x00, 0x08, 0x00,
  0x07, 0x00, 0x0c, 0x00, 0x10, 0x00, 0x14, 0x00, 0x0e, 0x00, 0x00, 0x00,
  0x00, 0x00, 0x00, 0x02, 0x30, 0x00, 0x00, 0x00, 0x02, 0x00, 0x00, 0x00,
  0x08, 0x00, 0x00, 0x00, 0x2c, 0x00, 0x00, 0x00, 0x18, 0x00, 0x00, 0x00,
  0x73, 0x65, 0x71, 0x75, 0x65, 0x6e, 0x74, 0x69, 0x61, 0x6c, 0x2f, 0x66,
  0x6c, 0x61, 0x74, 0x74, 0x65, 0x6e, 0x2f, 0x43, 0x6f, 0x6e, 0x73, 0x74,
  0x00, 0x00, 0x00, 0x00, 0x01, 0x00, 0x00, 0x00, 0x02, 0x00, 0x00, 0x00,
  0x54, 0xff, 0xff, 0xff, 0x14, 0x00, 0x1c, 0x00, 0x08, 0x00, 0x07, 0x00,
  0x0c, 0x00, 0x10, 0x00, 0x14, 0x00, 0x00, 0x00, 0x00, 0x00, 0x18, 0x00,
  0x14, 0x00, 0x00, 0x00, 0x00, 0x00, 0x00, 0x09, 0x4c, 0x00, 0x00, 0x00,
  0x01, 0x00, 0x00, 0x00, 0x20, 0x00, 0x00, 0x00, 0x60, 0x00, 0x00, 0x00,
  0x04, 0x00, 0x00, 0x00, 0x04, 0x00, 0x00, 0x00, 0xff, 0xff, 0xff, 0xff,
  0x64, 0x00, 0x00, 0x00, 0x03, 0x00, 0x00, 0x00, 0x01, 0x00, 0x00, 0x00,
  0x1e, 0x00, 0x00, 0x00, 0x73, 0x65, 0x72, 0x76, 0x69, 0x6e, 0x67, 0x5f,
  0x64, 0x65, 0x66, 0x61, 0x75, 0x6c, 0x74, 0x5f, 0x63, 0x6f, 0x6e, 0x76,
  0x32, 0x64, 0x5f, 0x69, 0x6e, 0x70, 0x75, 0x74, 0x3a, 0x30, 0x00, 0x00,
  0x04, 0x00, 0x00, 0x00, 0x01, 0x00, 0x00, 0x00, 0x64, 0x00, 0x00, 0x00,
  0x03, 0x00, 0x00, 0x00, 0x01, 0x00, 0x00, 0x00, 0x0c, 0x00, 0x0c, 0x00,
  0x00, 0x00, 0x00, 0x00, 0x04, 0x00, 0x08, 0x00, 0x0c, 0x00, 0x00, 0x00,
  0x14, 0x00, 0x00, 0x00, 0x04, 0x00, 0x00, 0x00, 0x01, 0x00, 0x00, 0x00,
  0x80, 0xff, 0xff, 0xff, 0xff, 0xff, 0xff, 0xff, 0x01, 0x00, 0x00, 0x00,
  0xfd, 0x7e, 0x80, 0x3b, 0x04, 0x00, 0x04, 0x00, 0x04, 0x00, 0x00, 0x00
};
unsigned int model_tflite_len = 5328;
