unsigned char model_tflite[] = {
  0x1c, 0x00, 0x00, 0x00, 0x54, 0x46, 0x4c, 0x33, 0x14, 0x00, 0x20, 0x00,
  0x04, 0x00, 0x08, 0x00, 0x0c, 0x00, 0x10, 0x00, 0x14, 0x00, 0x00, 0x00,
  0x18, 0x00, 0x1c, 0x00, 0x14, 0x00, 0x00, 0x00, 0x03, 0x00, 0x00, 0x00,
  0x64, 0x00, 0x00, 0x00, 0x58, 0x00, 0x00, 0x00, 0x48, 0x01, 0x00, 0x00,
  0x0c, 0x00, 0x00, 0x00, 0xf0, 0x00, 0x00, 0x00, 0x68, 0x00, 0x00, 0x00,
  0x10, 0x00, 0x00, 0x00, 0x8c, 0x14, 0x00, 0x00, 0x88, 0x14, 0x00, 0x00,
  0x70, 0x13, 0x00, 0x00, 0x34, 0x12, 0x00, 0x00, 0x5c, 0x11, 0x00, 0x00,
  0xa8, 0x08, 0x00, 0x00, 0x24, 0x08, 0x00, 0x00, 0x9c, 0x07, 0x00, 0x00,
  0x30, 0x07, 0x00, 0x00, 0x68, 0x14, 0x00, 0x00, 0x64, 0x14, 0x00, 0x00,
  0x60, 0x14, 0x00, 0x00, 0x5c, 0x14, 0x00, 0x00, 0x58, 0x14, 0x00, 0x00,
  0x54, 0x14, 0x00, 0x00, 0xdc, 0x00, 0x00, 0x00, 0x01, 0x00, 0x00, 0x00,
  0x14, 0x01, 0x00, 0x00, 0x05, 0x00, 0x00, 0x00, 0x34, 0x06, 0x00, 0x00,
  0x2c, 0x05, 0x00, 0x00, 0x40, 0x04, 0x00, 0x00, 0x58, 0x03, 0x00, 0x00,
  0xb8, 0x01, 0x00, 0x00, 0x01, 0x00, 0x00, 0x00, 0x10, 0x00, 0x00, 0x00,
  0x00, 0x00, 0x0a, 0x00, 0x10, 0x00, 0x0c, 0x00, 0x08, 0x00, 0x04, 0x00,
  0x0a, 0x00, 0x00, 0x00, 0x0c, 0x00, 0x00, 0x00, 0x1c, 0x00, 0x00, 0x00,
  0x20, 0x00, 0x00, 0x00, 0x0f, 0x00, 0x00, 0x00, 0x73, 0x65, 0x72, 0x76,
  0x69, 0x6e, 0x67, 0x5f, 0x64, 0x65, 0x66, 0x61, 0x75, 0x6c, 0x74, 0x00,
  0x01, 0x00, 0x00, 0x00, 0x14, 0x00, 0x00, 0x00, 0x01, 0x00, 0x00, 0x00,
  0x24, 0x00, 0x00, 0x00, 0x08, 0x00, 0x0c, 0x00, 0x08, 0x00, 0x04, 0x00,
  0x08, 0x00, 0x00, 0x00, 0x0d, 0x00, 0x00, 0x00, 0x04, 0x00, 0x00, 0x00,
  0x07, 0x00, 0x00, 0x00, 0x64, 0x65, 0x6e, 0x73, 0x65, 0x5f, 0x31, 0x00,
  0x56, 0xed, 0xff, 0xff, 0x04, 0x00, 0x00, 0x00, 0x0c, 0x00, 0x00, 0x00,
  0x63, 0x6f, 0x6e, 0x76, 0x32, 0x64, 0x5f, 0x69, 0x6e, 0x70, 0x75, 0x74,
  0x00, 0x00, 0x00, 0x00, 0x01, 0x00, 0x00, 0x00, 0x0c, 0x00, 0x00, 0x00,
  0x08, 0x00, 0x0c, 0x00, 0x04, 0x00, 0x08, 0x00, 0x08, 0x00, 0x00, 0x00,
  0x08, 0x00, 0x00, 0x00, 0x0f, 0x00, 0x00, 0x00, 0x13, 0x00, 0x00, 0x00,
  0x6d, 0x69, 0x6e, 0x5f, 0x72, 0x75, 0x6e, 0x74, 0x69, 0x6d, 0x65, 0x5f,
  0x76, 0x65, 0x72, 0x73, 0x69, 0x6f, 0x6e, 0x00, 0xa6, 0xed, 0xff, 0xff,
  0x04, 0x00, 0x00, 0x00, 0x10, 0x00, 0x00, 0x00, 0x31, 0x2e, 0x31, 0x34,
  0x2e, 0x30, 0x00, 0x00, 0x00, 0x00, 0x00, 0x00, 0x00, 0x00, 0x00, 0x00,
  0x0f, 0x00, 0x00, 0x00, 0x4d, 0x4c, 0x49, 0x52, 0x20, 0x43, 0x6f, 0x6e,
  0x76, 0x65, 0x72, 0x74, 0x65, 0x64, 0x2e, 0x00, 0x00, 0x00, 0x0e, 0x00,
  0x18, 0x00, 0x04, 0x00, 0x08, 0x00, 0x0c, 0x00, 0x10, 0x00, 0x14, 0x00,
  0x0e, 0x00, 0x00, 0x00, 0x4c, 0x00, 0x00, 0x00, 0x40, 0x00, 0x00, 0x00,
  0x34, 0x00, 0x00, 0x00, 0x14, 0x00, 0x00, 0x00, 0x04, 0x00, 0x00, 0x00,
  0x04, 0x00, 0x00, 0x00, 0x6d, 0x61, 0x69, 0x6e, 0x00, 0x00, 0x00, 0x00,
  0x06, 0x00, 0x00, 0x00, 0xac, 0x04, 0x00, 0x00, 0xa8, 0x03, 0x00, 0x00,
  0xe8, 0x02, 0x00, 0x00, 0xe4, 0x01, 0x00, 0x00, 0x1c, 0x01, 0x00, 0x00,
  0x50, 0x00, 0x00, 0x00, 0x01, 0x00, 0x00, 0x00, 0x0d, 0x00, 0x00, 0x00,
  0x01, 0x00, 0x00, 0x00, 0x00, 0x00, 0x00, 0x00, 0x0e, 0x00, 0x00, 0x00,
  0x48, 0x12, 0x00, 0x00, 0xec, 0x11, 0x00, 0x00, 0xf8, 0x10, 0x00, 0x00,
  0xe0, 0x0f, 0x00, 0x00, 0x4c, 0x0f, 0x00, 0x00, 0xa8, 0x06, 0x00, 0x00,
  0x10, 0x06, 0x00, 0x00, 0x9c, 0x05, 0x00, 0x00, 0xc4, 0x04, 0x00, 0x00,
  0xbc, 0x03, 0x00, 0x00, 0xd0, 0x02, 0x00, 0x00, 0xe8, 0x01, 0x00, 0x00,
  0x04, 0x01, 0x00, 0x00, 0x44, 0x00, 0x00, 0x00, 0x46, 0xff, 0xff, 0xff,
  0x00, 0x00, 0x00, 0x09, 0x04, 0x00, 0x00, 0x00, 0x1c, 0x00, 0x00, 0x00,
  0x10, 0x00, 0x00, 0x00, 0x04, 0x00, 0x00, 0x00, 0x8a, 0xee, 0xff, 0xff,
  0x00, 0x00, 0x80, 0x3f, 0x01, 0x00, 0x00, 0x00, 0x0d, 0x00, 0x00, 0x00,
  0x01, 0x00, 0x00, 0x00, 0x0c, 0x00, 0x00, 0x00, 0xa0, 0xfb, 0xff, 0xff,
  0x19, 0x00, 0x00, 0x00, 0x00, 0x00, 0x00, 0x19, 0x02, 0x00, 0x00, 0x00,
  0x44, 0xee, 0xff, 0xff, 0x00, 0x00, 0x00, 0x09, 0x40, 0x00, 0x00, 0x00,
  0x0e, 0x00, 0x00, 0x00, 0x18, 0x00, 0x00, 0x00, 0x40, 0x00, 0x00, 0x00,
  0x04, 0x00, 0x00, 0x00, 0x02, 0x00, 0x00, 0x00, 0xff, 0xff, 0xff, 0xff,
  0x02, 0x00, 0x00, 0x00, 0x19, 0x00, 0x00, 0x00, 0x53, 0x74, 0x61, 0x74,
  0x65, 0x66, 0x75, 0x6c, 0x50, 0x61, 0x72, 0x74, 0x69, 0x74, 0x69, 0x6f,
  0x6e, 0x65, 0x64, 0x43, 0x61, 0x6c, 0x6c, 0x3a, 0x30, 0x00, 0x00, 0x00,
  0x02, 0x00, 0x00, 0x00, 0x01, 0x00, 0x00, 0x00, 0x02, 0x00, 0x00, 0x00,
  0x1c, 0xee, 0xff, 0xff, 0x18, 0x00, 0x00, 0x00, 0x04, 0x00, 0x00, 0x00,
  0x01, 0x00, 0x00, 0x00, 0x80, 0xff, 0xff, 0xff, 0xff, 0xff, 0xff, 0xff,
  0x00, 0x00, 0x00, 0x00, 0x01, 0x00, 0x00, 0x00, 0x00, 0x00, 0x80, 0x3b,
  0x00, 0x00, 0x0e, 0x00, 0x18, 0x00, 0x08, 0x00, 0x0c, 0x00, 0x10, 0x00,
  0x07, 0x00, 0x14, 0x00, 0x0e, 0x00, 0x00, 0x00, 0x00, 0x00, 0x00, 0x08,
  0x03, 0x00, 0x00, 0x00, 0x18, 0x00, 0x00, 0x00, 0x0c, 0x00, 0x00, 0x00,
  0x04, 0x00, 0x00, 0x00, 0x3c, 0xee, 0xff, 0xff, 0x01, 0x00, 0x00, 0x00,
  0x0c, 0x00, 0x00, 0x00, 0x03, 0x00, 0x00, 0x00, 0x0b, 0x00, 0x00, 0x00,
  0x06, 0x00, 0x00, 0x00, 0x07, 0x00, 0x00, 0x00, 0x00, 0xef, 0xff, 0xff,
  0x00, 0x00, 0x00, 0x09, 0x5c, 0x00, 0x00, 0x00, 0x0d, 0x00, 0x00, 0x00,
  0x18, 0x00, 0x00, 0x00, 0x5c, 0x00, 0x00, 0x00, 0x04, 0x00, 0x00, 0x00,
  0x02, 0x00, 0x00, 0x00, 0xff, 0xff, 0xff, 0xff, 0x02, 0x00, 0x00, 0x00,
  0x34, 0x00, 0x00, 0x00, 0x73, 0x65, 0x71, 0x75, 0x65, 0x6e, 0x74, 0x69,
  0x61, 0x6c, 0x2f, 0x64, 0x65, 0x6e, 0x73, 0x65, 0x5f, 0x31, 0x2f, 0x4d,
  0x61, 0x74, 0x4d, 0x75, 0x6c, 0x3b, 0x73, 0x65, 0x71, 0x75, 0x65, 0x6e,
  0x74, 0x69, 0x61, 0x6c, 0x2f, 0x64, 0x65, 0x6e, 0x73, 0x65, 0x5f, 0x31,
  0x2f, 0x42, 0x69, 0x61, 0x73, 0x41, 0x64, 0x64, 0x00, 0x00, 0x00, 0x00,
  0x02, 0x00, 0x00, 0x00, 0x01, 0x00, 0x00, 0x00, 0x02, 0x00, 0x00, 0x00,
  0xf4, 0xee, 0xff, 0xff, 0x14, 0x00, 0x00, 0x00, 0x04, 0x00, 0x00, 0x00,
  0x01, 0x00, 0x00, 0x00, 0xfe, 0xff, 0xff, 0xff, 0xff, 0xff, 0xff, 0xff,
  0x01, 0x00, 0x00, 0x00, 0x79, 0x5e, 0xc4, 0x3c, 0x52, 0xfe, 0xff, 0xff,
  0x00, 0x00, 0x00, 0x08, 0x03, 0x00, 0x00, 0x00, 0x24, 0x00, 0x00, 0x00,
  0x18, 0x00, 0x00, 0x00, 0x0c, 0x00, 0x00, 0x00, 0x00, 0x00, 0x06, 0x00,
  0x08, 0x00, 0x07, 0x00, 0x06, 0x00, 0x00, 0x00, 0x00, 0x00, 0x00, 0x01,
  0x01, 0x00, 0x00, 0x00, 0x0b, 0x00, 0x00, 0x00, 0x03, 0x00, 0x00, 0x00,
  0x0a, 0x00, 0x00, 0x00, 0x04, 0x00, 0x00, 0x00, 0x05, 0x00, 0x00, 0x00,
  0x3c, 0xfd, 0xff, 0xff, 0x09, 0x00, 0x00, 0x00, 0x00, 0x00, 0x00, 0x09,
  0x04, 0x00, 0x00, 0x00, 0xe0, 0xef, 0xff, 0xff, 0x00, 0x00, 0x00, 0x09,
  0x6c, 0x00, 0x00, 0x00, 0x0c, 0x00, 0x00, 0x00, 0x18, 0x00, 0x00, 0x00,
  0x6c, 0x00, 0x00, 0x00, 0x04, 0x00, 0x00, 0x00, 0x02, 0x00, 0x00, 0x00,
  0xff, 0xff, 0xff, 0xff, 0x08, 0x00, 0x00, 0x00, 0x46, 0x00, 0x00, 0x00,
  0x73, 0x65, 0x71, 0x75, 0x65, 0x6e, 0x74, 0x69, 0x61, 0x6c, 0x2f, 0x64,
  0x65, 0x6e, 0x73, 0x65, 0x2f, 0x4d, 0x61, 0x74, 0x4d, 0x75, 0x6c, 0x3b,
  0x73, 0x65, 0x71, 0x75, 0x65, 0x6e, 0x74, 0x69, 0x61, 0x6c, 0x2f, 0x64,
  0x65, 0x6e, 0x73, 0x65, 0x2f, 0x52, 0x65, 0x6c, 0x75, 0x3b, 0x73, 0x65,
  0x71, 0x75, 0x65, 0x6e, 0x74, 0x69, 0x61, 0x6c, 0x2f, 0x64, 0x65, 0x6e,
  0x73, 0x65, 0x2f, 0x42, 0x69, 0x61, 0x73, 0x41, 0x64, 0x64, 0x00, 0x00,
  0x02, 0x00, 0x00, 0x00, 0x01, 0x00, 0x00, 0x00, 0x08, 0x00, 0x00, 0x00,
  0xe4, 0xef, 0xff, 0xff, 0x18, 0x00, 0x00, 0x00, 0x04, 0x00, 0x00, 0x00,
  0x01, 0x00, 0x00, 0x00, 0x80, 0xff, 0xff, 0xff, 0xff, 0xff, 0xff, 0xff,
  0x00, 0x00, 0x00, 0x00, 0x01, 0x00, 0x00, 0x00, 0xc7, 0xd4, 0x39, 0x3c,
  0x00, 0x00, 0x0a, 0x00, 0x10, 0x00, 0x04, 0x00, 0x08, 0x00, 0x0c, 0x00,
  0x0a, 0x00, 0x00, 0x00, 0x02, 0x00, 0x00, 0x00, 0x10, 0x00, 0x00, 0x00,
  0x04, 0x00, 0x00, 0x00, 0x01, 0x00, 0x00, 0x00, 0x0a, 0x00, 0x00, 0x00,
  0x02, 0x00, 0x00, 0x00, 0x09, 0x00, 0x00, 0x00, 0x01, 0x00, 0x00, 0x00,
  0x20, 0xfe, 0xff, 0xff, 0x16, 0x00, 0x00, 0x00, 0x00, 0x00, 0x00, 0x16,
  0x01, 0x00, 0x00, 0x00, 0xc4, 0xf0, 0xff, 0xff, 0x00, 0x00, 0x00, 0x09,
  0x40, 0x00, 0x00, 0x00, 0x0b, 0x00, 0x00, 0x00, 0x18, 0x00, 0x00, 0x00,
  0x40, 0x00, 0x00, 0x00, 0x04, 0x00, 0x00, 0x00, 0x02, 0x00, 0x00, 0x00,
  0xff, 0xff, 0xff, 0xff, 0x08, 0x01, 0x00, 0x00, 0x1a, 0x00, 0x00, 0x00,
  0x73, 0x65, 0x71, 0x75, 0x65, 0x6e, 0x74, 0x69, 0x61, 0x6c, 0x2f, 0x66,
  0x6c, 0x61, 0x74, 0x74, 0x65, 0x6e, 0x2f, 0x52, 0x65, 0x73, 0x68, 0x61,
  0x70, 0x65, 0x00, 0x00, 0x02, 0x00, 0x00, 0x00, 0x01, 0x00, 0x00, 0x00,
  0x08, 0x01, 0x00, 0x00, 0x9c, 0xf0, 0xff, 0xff, 0x18, 0x00, 0x00, 0x00,
  0x04, 0x00, 0x00, 0x00, 0x01, 0x00, 0x00, 0x00, 0x80, 0xff, 0xff, 0xff,
  0xff, 0xff, 0xff, 0xff, 0x00, 0x00, 0x00, 0x00, 0x01, 0x00, 0x00, 0x00,
  0xc9, 0xee, 0x29, 0x3b, 0x00, 0x00, 0x0e, 0x00, 0x1a, 0x00, 0x08, 0x00,
  0x0c, 0x00, 0x10, 0x00, 0x07, 0x00, 0x14, 0x00, 0x0e, 0x00, 0x00, 0x00,
  0x00, 0x00, 0x00, 0x05, 0x01, 0x00, 0x00, 0x00, 0x3c, 0x00, 0x00, 0x00,
  0x30, 0x00, 0x00, 0x00, 0x14, 0x00, 0x00, 0x00, 0x00, 0x00, 0x0e, 0x00,
  0x18, 0x00, 0x17, 0x00, 0x10, 0x00, 0x0c, 0x00, 0x08, 0x00, 0x04, 0x00,
  0x0e, 0x00, 0x00, 0x00, 0x03, 0x00, 0x00, 0x00, 0x03, 0x00, 0x00, 0x00,
  0x03, 0x00, 0x00, 0x00, 0x03, 0x00, 0x00, 0x00, 0x00, 0x00, 0x00, 0x01,
  0x01, 0x00, 0x00, 0x00, 0x09, 0x00, 0x00, 0x00, 0x01, 0x00, 0x00, 0x00,
  0x08, 0x00, 0x00, 0x00, 0x08, 0xff, 0xff, 0xff, 0x11, 0x00, 0x00, 0x00,
  0x00, 0x00, 0x00, 0x11, 0x02, 0x00, 0x00, 0x00, 0xac, 0xf1, 0xff, 0xff,
  0x00, 0x00, 0x00, 0x09, 0x50, 0x00, 0x00, 0x00, 0x0a, 0x00, 0x00, 0x00,
  0x20, 0x00, 0x00, 0x00, 0x58, 0x00, 0x00, 0x00, 0x04, 0x00, 0x00, 0x00,
  0x04, 0x00, 0x00, 0x00, 0xff, 0xff, 0xff, 0xff, 0x21, 0x00, 0x00, 0x00,
  0x01, 0x00, 0x00, 0x00, 0x08, 0x00, 0x00, 0x00, 0x20, 0x00, 0x00, 0x00,
  0x73, 0x65, 0x71, 0x75, 0x65, 0x6e, 0x74, 0x69, 0x61, 0x6c, 0x2f, 0x6d,
  0x61, 0x78, 0x5f, 0x70, 0x6f, 0x6f, 0x6c, 0x69, 0x6e, 0x67, 0x32, 0x64,
  0x2f, 0x4d, 0x61, 0x78, 0x50, 0x6f, 0x6f, 0x6c, 0x00, 0x00, 0x00, 0x00,
  0x04, 0x00, 0x00, 0x00, 0x01, 0x00, 0x00, 0x00, 0x21, 0x00, 0x00, 0x00,
  0x01, 0x00, 0x00, 0x00, 0x08, 0x00, 0x00, 0x00, 0x9c, 0xf1, 0xff, 0xff,
  0x18, 0x00, 0x00, 0x00, 0x04, 0x00, 0x00, 0x00, 0x01, 0x00, 0x00, 0x00,
  0x80, 0xff, 0xff, 0xff, 0xff, 0xff, 0xff, 0xff, 0x00, 0x00, 0x00, 0x00,
  0x01, 0x00, 0x00, 0x00, 0xc9, 0xee, 0x29, 0x3b, 0x00, 0x00, 0x0e, 0x00,
  0x14, 0x00, 0x00, 0x00, 0x08, 0x00, 0x0c, 0x00, 0x07, 0x00, 0x10, 0x00,
  0x0e, 0x00, 0x00, 0x00, 0x00, 0x00, 0x00, 0x01, 0x30, 0x00, 0x00, 0x00,
  0x24, 0x00, 0x00, 0x00, 0x10, 0x00, 0x00, 0x00, 0x0c, 0x00, 0x10, 0x00,
  0x00, 0x00, 0x04, 0x00, 0x08, 0x00, 0x0f, 0x00, 0x0c, 0x00, 0x00, 0x00,
  0x01, 0x00, 0x00, 0x00, 0x01, 0x00, 0x00, 0x00, 0x00, 0x00, 0x00, 0x01,
  0x01, 0x00, 0x00, 0x00, 0x08, 0x00, 0x00, 0x00, 0x03, 0x00, 0x00, 0x00,
  0x00, 0x00, 0x00, 0x00, 0x02, 0x00, 0x00, 0x00, 0x03, 0x00, 0x00, 0x00,
  0x0c, 0x00, 0x10, 0x00, 0x0b, 0x00, 0x00, 0x00, 0x0c, 0x00, 0x04, 0x00,
  0x0c, 0x00, 0x00, 0x00, 0x03, 0x00, 0x00, 0x00, 0x00, 0x00, 0x00, 0x03,
  0x03, 0x00, 0x00, 0x00, 0xb0, 0xf2, 0xff, 0xff, 0x00, 0x00, 0x00, 0x09,
  0x84, 0x00, 0x00, 0x00, 0x09, 0x00, 0x00, 0x00, 0x20, 0x00, 0x00, 0x00,
  0x8c, 0x00, 0x00, 0x00, 0x04, 0x00, 0x00, 0x00, 0x04, 0x00, 0x00, 0x00,
  0xff, 0xff, 0xff, 0xff, 0x64, 0x00, 0x00, 0x00, 0x03, 0x00, 0x00, 0x00,
  0x08, 0x00, 0x00, 0x00, 0x55, 0x00, 0x00, 0x00, 0x73, 0x65, 0x71, 0x75,
  0x65, 0x6e, 0x74, 0x69, 0x61, 0x6c, 0x2f, 0x63, 0x6f, 0x6e, 0x76, 0x32,
  0x64, 0x2f, 0x52, 0x65, 0x6c, 0x75, 0x3b, 0x73, 0x65, 0x71, 0x75, 0x65,
  0x6e, 0x74, 0x69, 0x61, 0x6c, 0x2f, 0x63, 0x6f, 0x6e, 0x76, 0x32, 0x64,
  0x2f, 0x42, 0x69, 0x61, 0x73, 0x41, 0x64, 0x64, 0x3b, 0x73, 0x65, 0x71,
  0x75, 0x65, 0x6e, 0x74, 0x69, 0x61, 0x6c, 0x2f, 0x63, 0x6f, 0x6e, 0x76,
  0x32, 0x64, 0x2f, 0x43, 0x6f, 0x6e, 0x76, 0x32, 0x44, 0x3b, 0x63, 0x6f,
  0x6e, 0x76, 0x32, 0x64, 0x2f, 0x62, 0x69, 0x61, 0x73, 0x00, 0x00, 0x00,
  0x04, 0x00, 0x00, 0x00, 0x01, 0x00, 0x00, 0x00, 0x64, 0x00, 0x00, 0x00,
  0x03, 0x00, 0x00, 0x00, 0x08, 0x00, 0x00, 0x00, 0xd4, 0xf2, 0xff, 0xff,
  0x14, 0x00, 0x00, 0x00, 0x04, 0x00, 0x00, 0x00, 0x01, 0x00, 0x00, 0x00,
  0x80, 0xff, 0xff, 0xff, 0xff, 0xff, 0xff, 0xff, 0x01, 0x00, 0x00, 0x00,
  0xc9, 0xee, 0x29, 0x3b, 0xde, 0xf3, 0xff, 0xff, 0x04, 0x00, 0x00, 0x00,
  0x08, 0x00, 0x00, 0x00, 0xcf, 0x00, 0x00, 0x00, 0x19, 0xff, 0xff, 0xff,
  0xd6, 0xf3, 0xff, 0xff, 0x00, 0x00, 0x00, 0x02, 0x24, 0x00, 0x00, 0x00,
  0x08, 0x00, 0x00, 0x00, 0x08, 0x00, 0x00, 0x00, 0x20, 0x00, 0x00, 0x00,
  0x0c, 0x00, 0x00, 0x00, 0x64, 0x65, 0x6e, 0x73, 0x65, 0x5f, 0x31, 0x2f,
  0x62, 0x69, 0x61, 0x73, 0x00, 0x00, 0x00, 0x00, 0x01, 0x00, 0x00, 0x00,
  0x02, 0x00, 0x00, 0x00, 0x3c, 0xf3, 0xff, 0xff, 0x14, 0x00, 0x00, 0x00,
  0x04, 0x00, 0x00, 0x00, 0x01, 0x00, 0x00, 0x00, 0x00, 0x00, 0x00, 0x00,
  0x00, 0x00, 0x00, 0x00, 0x01, 0x00, 0x00, 0x00, 0x59, 0x75, 0x8b, 0x38,
  0x46, 0xf4, 0xff, 0xff, 0x04, 0x00, 0x00, 0x00, 0x10, 0x00, 0x00, 0x00,
  0x2e, 0x72, 0x3c, 0x81, 0x90, 0xed, 0x1b, 0xd7, 0x9f, 0xb6, 0x59, 0x5b,
  0xc1, 0xd9, 0xa6, 0x47, 0x46, 0xf4, 0xff, 0xff, 0x00, 0x00, 0x00, 0x09,
  0x30, 0x00, 0x00, 0x00, 0x07, 0x00, 0x00, 0x00, 0x08, 0x00, 0x00, 0x00,
  0x30, 0x00, 0x00, 0x00, 0x19, 0x00, 0x00, 0x00, 0x73, 0x65, 0x71, 0x75,
  0x65, 0x6e, 0x74, 0x69, 0x61, 0x6c, 0x2f, 0x64, 0x65, 0x6e, 0x73, 0x65,
  0x5f, 0x31, 0x2f, 0x4d, 0x61, 0x74, 0x4d, 0x75, 0x6c, 0x00, 0x00, 0x00,
  0x02, 0x00, 0x00, 0x00, 0x02, 0x00, 0x00, 0x00, 0x08, 0x00, 0x00, 0x00,
  0xbc, 0xf3, 0xff, 0xff, 0x18, 0x00, 0x00, 0x00, 0x04, 0x00, 0x00, 0x00,
  0x01, 0x00, 0x00, 0x00, 0x00, 0x00, 0x00, 0x00, 0x00, 0x00, 0x00, 0x00,
  0x00, 0x00, 0x00, 0x00, 0x01, 0x00, 0x00, 0x00, 0xfb, 0x1d, 0xc0, 0x3b,
  0xca, 0xf4, 0xff, 0xff, 0x04, 0x00, 0x00, 0x00, 0x20, 0x00, 0x00, 0x00,
  0x00, 0x00, 0x00, 0x00, 0xcd, 0x0c, 0x00, 0x00, 0x5c, 0xfb, 0xff, 0xff,
  0xda, 0xf8, 0xff, 0xff, 0x42, 0xf8, 0xff, 0xff, 0x1f, 0x0c, 0x00, 0x00,
  0xbd, 0x0f, 0x00, 0x00, 0x03, 0xf3, 0xff, 0xff, 0xda, 0xf4, 0xff, 0xff,
  0x00, 0x00, 0x00, 0x02, 0x20, 0x00, 0x00, 0x00, 0x06, 0x00, 0x00, 0x00,
  0x08, 0x00, 0x00, 0x00, 0x1c, 0x00, 0x00, 0x00, 0x0a, 0x00, 0x00, 0x00,
  0x64, 0x65, 0x6e, 0x73, 0x65, 0x2f, 0x62, 0x69, 0x61, 0x73, 0x00, 0x00,
  0x01, 0x00, 0x00, 0x00, 0x08, 0x00, 0x00, 0x00, 0x3c, 0xf4, 0xff, 0xff,
  0x18, 0x00, 0x00, 0x00, 0x04, 0x00, 0x00, 0x00, 0x01, 0x00, 0x00, 0x00,
  0x00, 0x00, 0x00, 0x00, 0x00, 0x00, 0x00, 0x00, 0x00, 0x00, 0x00, 0x00,
  0x01, 0x00, 0x00, 0x00, 0x64, 0x23, 0x9f, 0x36, 0x4a, 0xf5, 0xff, 0xff,
  0x04, 0x00, 0x00, 0x00, 0x40, 0x08, 0x00, 0x00, 0x37, 0x14, 0xb1, 0xd0,
  0xc6, 0x42, 0xdb, 0xe7, 0xe4, 0x21, 0x30, 0x37, 0x0f, 0xd2, 0x3e, 0xd4,
  0x4e, 0xc4, 0x28, 0x37, 0x17, 0xd1, 0x41, 0x3e, 0xcb, 0x37, 0x23, 0xb3,
  0xda, 0xb4, 0x0f, 0x42, 0xcd, 0x2f, 0xeb, 0xcf, 0x3e, 0xff, 0x4b, 0xbe,
  0x1e, 0x3c, 0xf3, 0xd6, 0xee, 0xb5, 0xde, 0x3b, 0xc0, 0xee, 0x21, 0xc5,
  0xe4, 0xd2, 0x35, 0xe3, 0xef, 0x26, 0xdb, 0x07, 0xdd, 0x06, 0x4a, 0x42,
  0x08, 0xcf, 0xbd, 0x26, 0xf0, 0x14, 0xdd, 0xb2, 0xf4, 0x07, 0x1a, 0xbf,
  0x42, 0x0a, 0xfc, 0xda, 0xe4, 0xd9, 0xf1, 0x4c, 0x15, 0x25, 0xee, 0x04,
  0xea, 0xf0, 0xc0, 0xbd, 0xb9, 0x26, 0x12, 0x31, 0x0b, 0xde, 0xd9, 0x2b,
  0xd1, 0x30, 0xe6, 0xb1, 0x26, 0xd4, 0xde, 0x29, 0x2d, 0xcb, 0x0a, 0xb4,
  0x18, 0x3a, 0x13, 0x3f, 0xe3, 0x44, 0x22, 0xbc, 0x17, 0xc5, 0x3b, 0x09,
  0x39, 0x14, 0xf3, 0xeb, 0xbf, 0x2b, 0x4d, 0xba, 0xc7, 0xcd, 0x3b, 0x37,
  0xe9, 0xb4, 0x00, 0x30, 0xc3, 0x35, 0xb5, 0x0f, 0xf8, 0x41, 0xd3, 0xde,
  0xf1, 0x36, 0x3e, 0x11, 0x33, 0xba, 0x43, 0xc0, 0xd7, 0x43, 0xb8, 0x38,
  0x12, 0xda, 0x20, 0x2b, 0x3e, 0x05, 0xef, 0xcb, 0xb8, 0xf4, 0xc1, 0xd5,
  0xb1, 0xb3, 0x00, 0xb3, 0xec, 0x26, 0xb3, 0x19, 0xd7, 0x2c, 0x1b, 0x50,
  0x05, 0xcc, 0x08, 0xb1, 0xed, 0xf4, 0xbf, 0xca, 0x22, 0xf8, 0xd2, 0x0d,
  0x3e, 0x25, 0x3a, 0xd3, 0xc7, 0x22, 0x26, 0xef, 0xeb, 0x02, 0xcf, 0x3a,
  0x44, 0x13, 0xca, 0x3a, 0x0f, 0x08, 0xf7, 0x3f, 0xb6, 0xfc, 0xd5, 0xb9,
  0x39, 0x02, 0x4c, 0x33, 0xd3, 0x29, 0x11, 0x17, 0xc5, 0xba, 0xfd, 0xe6,
  0xe5, 0x50, 0x11, 0xc3, 0x2b, 0xec, 0x4c, 0x25, 0x00, 0x4e, 0xdf, 0xd8,
  0xd8, 0xf5, 0x3c, 0xe7, 0x2a, 0x49, 0x15, 0x36, 0xd0, 0xb5, 0xd6, 0xe3,
  0xfa, 0x2a, 0x3d, 0x0b, 0x15, 0x10, 0xda, 0xd1, 0xcd, 0xb6, 0x1e, 0x3b,
  0x26, 0x50, 0x27, 0x05, 0xcf, 0xc4, 0x3c, 0xbc, 0x06, 0xee, 0xfb, 0xbd,
  0x26, 0x86, 0xb9, 0xef, 0xf8, 0xc6, 0x3f, 0x24, 0xbd, 0x0e, 0xf7, 0x4a,
  0x45, 0x99, 0x4a, 0x19, 0x03, 0xa2, 0x31, 0x0f, 0x49, 0xcd, 0x08, 0xd5,
  0xe2, 0x26, 0x1e, 0xbe, 0xc4, 0x0b, 0xf2, 0xb1, 0xfb, 0x9f, 0x14, 0xba,
  0xfe, 0xa3, 0xfe, 0xe7, 0xe6, 0xec, 0x1e, 0x47, 0x37, 0xbc, 0xcb, 0x0a,
  0x36, 0xa0, 0x0e, 0xac, 0x01, 0xde, 0xce, 0xd7, 0xec, 0x26, 0xc7, 0xde,
  0xd6, 0x18, 0x3e, 0xc6, 0x1f, 0xd7, 0xd7, 0x4a, 0xd5, 0xdf, 0x15, 0xfc,
  0xdd, 0x0d, 0xcc, 0x46, 0x24, 0x90, 0x1c, 0x47, 0xc1, 0x02, 0xd2, 0xc3,
  0x41, 0x14, 0x28, 0x05, 0xf0, 0xbb, 0xc5, 0xd0, 0x10, 0xfe, 0x08, 0x52,
  0xa2, 0x0d, 0x1d, 0x3e, 0x4e, 0x0d, 0xf5, 0x26, 0x21, 0xc6, 0xa9, 0xe1,
  0x4d, 0x8b, 0xf1, 0x38, 0x25, 0x94, 0xe7, 0x1e, 0xc2, 0x17, 0xc9, 0x24,
  0x1f, 0x25, 0x19, 0x2f, 0xc4, 0xe9, 0xbb, 0x0e, 0xb4, 0xe0, 0x26, 0x44,
  0x32, 0x17, 0x4f, 0xf2, 0x02, 0x9a, 0x40, 0x2a, 0x47, 0xa1, 0x1b, 0xee,
  0xb9, 0xdb, 0x45, 0x2c, 0x45, 0xdc, 0xba, 0xf0, 0x25, 0xbe, 0x28, 0x36,
  0x32, 0xdf, 0x48, 0xef, 0x08, 0xec, 0xdb, 0xe0, 0xd6, 0xbc, 0x51, 0x4f,
  0x0a, 0x0c, 0x0d, 0xdb, 0x48, 0xad, 0xdb, 0x10, 0xae, 0xde, 0xc3, 0x37,
  0x48, 0x97, 0xea, 0xd5, 0x2b, 0xd6, 0xe8, 0xb7, 0x13, 0x97, 0x3d, 0x27,
  0xf3, 0x92, 0x07, 0x3d, 0x2a, 0xca, 0xd8, 0xb8, 0x08, 0x02, 0xf2, 0x42,
  0x24, 0x21, 0xfd, 0x10, 0x1e, 0x08, 0xb2, 0x09, 0x0a, 0xd9, 0xf9, 0x4a,
  0xa7, 0x27, 0xd8, 0xd6, 0xd4, 0xbb, 0x47, 0xe9, 0xbb, 0x2a, 0x14, 0x28,
  0x24, 0xeb, 0xbc, 0xf7, 0x37, 0xce, 0xb5, 0x44, 0xfb, 0x87, 0xcf, 0xd1,
  0x1b, 0x8b, 0xbc, 0x18, 0xe1, 0xd0, 0x2b, 0x3e, 0x22, 0x43, 0x30, 0x19,
  0x0a, 0xd5, 0x3a, 0xb9, 0x02, 0xef, 0x03, 0x46, 0xf1, 0xe5, 0x34, 0x27,
  0x30, 0x7f, 0x40, 0xef, 0xd8, 0x77, 0x4e, 0xc8, 0xf7, 0x41, 0xdb, 0xb5,
  0xf4, 0x29, 0x10, 0xef, 0x62, 0x6f, 0x0e, 0xe3, 0xb3, 0x1c, 0x0c, 0xeb,
  0xd1, 0x46, 0x5c, 0x10, 0xca, 0x6d, 0x0d, 0xc0, 0x48, 0x4f, 0xbb, 0xf6,
  0xb4, 0x1a, 0xb4, 0xc4, 0x47, 0x7e, 0x18, 0xfc, 0x53, 0x58, 0xd5, 0x2d,
  0x16, 0x16, 0xda, 0xfa, 0xb2, 0xea, 0x3b, 0x47, 0x41, 0x11, 0x3c, 0xdb,
  0x2d, 0x1c, 0xe6, 0x2d, 0x63, 0x3b, 0xe0, 0x13, 0xd1, 0x24, 0x24, 0xf4,
  0x5d, 0xeb, 0xd5, 0x23, 0x05, 0x03, 0x45, 0x2b, 0x3a, 0x06, 0x0b, 0x2a,
  0xd2, 0x7b, 0x20, 0x2e, 0xfa, 0x74, 0x1c, 0x4a, 0x52, 0x05, 0x3e, 0xf8,
  0x52, 0x10, 0x33, 0x36, 0xf8, 0xde, 0xd5, 0xfd, 0x02, 0xf7, 0x1a, 0x3f,
  0xc3, 0x71, 0xf1, 0xd3, 0xe9, 0xe4, 0xd3, 0x1c, 0xdc, 0x11, 0xee, 0xe5,
  0x27, 0x6e, 0xcc, 0x2c, 0x2e, 0x52, 0xbd, 0xe3, 0xec, 0x6d, 0x4b, 0x39,
  0xc7, 0x1b, 0x47, 0x23, 0xca, 0x29, 0x45, 0x2b, 0x12, 0x74, 0xb5, 0xbb,
  0xfd, 0x44, 0x3a, 0x56, 0xdd, 0xe6, 0x0c, 0x30, 0x5c, 0x5a, 0xcf, 0xd5,
  0x15, 0x00, 0x0f, 0xd9, 0x4b, 0x03, 0xf5, 0xdc, 0xe6, 0x70, 0x21, 0xcc,
  0x11, 0x41, 0x00, 0x4f, 0xde, 0x35, 0x02, 0x4a, 0xfb, 0x51, 0x47, 0x17,
  0x01, 0xf8, 0x52, 0x34, 0xe2, 0x30, 0x5b, 0x30, 0xdf, 0x02, 0x22, 0xf1,
  0x4d, 0xf6, 0xd3, 0xc8, 0x33, 0x1b, 0xe2, 0xf6, 0x4d, 0x3f, 0x50, 0x13,
  0xf2, 0x0d, 0x1b, 0x4d, 0x5b, 0x58, 0x0e, 0x0e, 0x2b, 0x12, 0xff, 0x11,
  0x64, 0xdd, 0xf7, 0xd4, 0xc1, 0x03, 0x09, 0x3b, 0x29, 0x37, 0x10, 0xbf,
  0x2e, 0x32, 0xb5, 0x0b, 0xe1, 0x30, 0xfd, 0xe2, 0xde, 0x47, 0x14, 0xc6,
  0x25, 0x3f, 0x0c, 0xe5, 0x0c, 0x36, 0xe7, 0xe3, 0x14, 0x51, 0xe2, 0x0a,
  0x4f, 0x23, 0xdb, 0xf7, 0xe0, 0x74, 0xca, 0xcd, 0x2c, 0x27, 0x27, 0xc6,
  0x5a, 0x56, 0xcd, 0xd2, 0x08, 0x0b, 0xe2, 0x1b, 0xc1, 0x22, 0x0e, 0x00,
  0x29, 0x7e, 0x34, 0x36, 0xe7, 0x2f, 0xef, 0xf5, 0xf1, 0x6c, 0x2e, 0x2b,
  0x44, 0x18, 0xce, 0x52, 0x47, 0x36, 0x22, 0xcf, 0x5b, 0x61, 0xd9, 0x3b,
  0xe9, 0xe7, 0x2d, 0x50, 0xd0, 0x4f, 0x16, 0x28, 0x07, 0x48, 0xf9, 0xc9,
  0x35, 0x02, 0x58, 0x1a, 0x2a, 0x49, 0x3c, 0xd5, 0x4d, 0xe4, 0x1d, 0xfa,
  0xb8, 0x72, 0xff, 0x42, 0x33, 0x77, 0xc9, 0x2c, 0x05, 0x10, 0x39, 0xca,
  0xc4, 0x52, 0xfe, 0x54, 0x23, 0x16, 0xff, 0xcf, 0x4c, 0x56, 0x00, 0x2c,
  0x01, 0x23, 0x49, 0x19, 0x59, 0xd6, 0xe4, 0x35, 0x04, 0x76, 0xbb, 0x31,
  0xc1, 0x2b, 0x5d, 0x4f, 0x2d, 0x10, 0x2e, 0xbb, 0xfc, 0xeb, 0xcf, 0xc0,
  0x06, 0x72, 0xce, 0xd9, 0x0e, 0x20, 0x22, 0x1b, 0xc6, 0x62, 0xf9, 0xc1,
  0x20, 0x38, 0x36, 0xef, 0x21, 0x35, 0x53, 0x38, 0xe1, 0x48, 0x16, 0xd3,
  0x38, 0x07, 0x01, 0x52, 0x0d, 0x72, 0xc8, 0x17, 0x04, 0x32, 0xbc, 0x17,
  0x4b, 0x5b, 0x1a, 0xc3, 0xd4, 0x17, 0x42, 0xfd, 0x4b, 0xd5, 0xec, 0x3f,
  0x42, 0xfc, 0xdb, 0xcd, 0xc6, 0xea, 0x4d, 0x1f, 0xf4, 0x10, 0xe6, 0xbf,
  0xe3, 0xff, 0xe7, 0xd4, 0xe2, 0x1e, 0x11, 0xbe, 0x0a, 0x6e, 0xf8, 0x25,
  0xfc, 0x44, 0x26, 0x1a, 0xf6, 0xfd, 0x22, 0xf2, 0xd9, 0x72, 0x00, 0xbc,
  0x37, 0x3d, 0x36, 0x16, 0x3b, 0x7b, 0xbe, 0xdc, 0xfb, 0x1f, 0x22, 0x20,
  0x04, 0xe2, 0x2c, 0x17, 0xd8, 0x69, 0x07, 0x4e, 0xca, 0x05, 0x2d, 0x38,
  0xcc, 0x50, 0xf5, 0x3c, 0x06, 0x01, 0x2f, 0xb3, 0xd3, 0x2d, 0x20, 0xd2,
  0xdc, 0x64, 0x2d, 0x1d, 0x43, 0x33, 0x52, 0x50, 0xfe, 0x0a, 0x36, 0xbf,
  0x4f, 0x20, 0x49, 0xda, 0xbc, 0x48, 0xea, 0xff, 0x40, 0xf0, 0xac, 0x32,
  0x22, 0xa9, 0xd0, 0x2b, 0xdb, 0x00, 0x4c, 0xcd, 0x4f, 0xda, 0x10, 0x0d,
  0xee, 0x48, 0xd0, 0x22, 0x1c, 0xe4, 0xe1, 0xb6, 0xd4, 0x57, 0x4a, 0xbd,
  0x1d, 0xfb, 0x29, 0xbc, 0x32, 0xef, 0x21, 0x3b, 0xe6, 0xf2, 0xe6, 0x07,
  0x03, 0x4f, 0x48, 0xe6, 0x47, 0xd8, 0x3e, 0xd5, 0xdd, 0x0b, 0xcc, 0xbe,
  0x43, 0x43, 0xf8, 0x38, 0x07, 0x2a, 0x3a, 0xe1, 0x43, 0x57, 0x2d, 0xdd,
  0xc2, 0xf5, 0x3d, 0x0d, 0x17, 0x44, 0xf2, 0x48, 0x4b, 0xf0, 0x20, 0x40,
  0xb6, 0x33, 0x52, 0x52, 0x42, 0x15, 0x1b, 0xda, 0x1b, 0x42, 0xb6, 0xf5,
  0x29, 0x5f, 0x30, 0x44, 0x13, 0xf4, 0xd6, 0x04, 0x2e, 0x76, 0x57, 0xf3,
  0x3b, 0xea, 0x32, 0xb6, 0xf1, 0x4c, 0xbd, 0xda, 0x2c, 0x29, 0x00, 0xd6,
  0x38, 0x41, 0xcd, 0xec, 0x30, 0x13, 0xe9, 0x41, 0xf9, 0x2d, 0xf2, 0x27,
  0xb3, 0x1e, 0x13, 0x10, 0x13, 0x59, 0x0b, 0x14, 0xbd, 0xe6, 0xde, 0xce,
  0xc9, 0x4a, 0xe1, 0xfe, 0xdb, 0x07, 0x14, 0x10, 0x35, 0x74, 0x46, 0xe6,
  0x2b, 0x03, 0x41, 0xe5, 0x52, 0x70, 0x00, 0xe9, 0xbd, 0x49, 0xde, 0x23,
  0xd7, 0x5b, 0x58, 0x4c, 0xc6, 0xe7, 0xc8, 0xde, 0x24, 0x49, 0xdd, 0x0c,
  0x0b, 0xfe, 0xf5, 0x36, 0x25, 0x17, 0xd2, 0x46, 0x1f, 0x5a, 0xb7, 0xfd,
  0x0f, 0x3e, 0x33, 0x1a, 0xb6, 0x4f, 0xaf, 0xb4, 0xec, 0xe6, 0xd0, 0xce,
  0x27, 0x61, 0x0d, 0xe6, 0xe6, 0x14, 0x3e, 0xbd, 0x18, 0x15, 0x49, 0x23,
  0x0f, 0xf1, 0xdb, 0x06, 0xe5, 0xf9, 0x19, 0xea, 0x4e, 0x20, 0xc0, 0x26,
  0x12, 0x61, 0xe3, 0x35, 0x1b, 0xfb, 0x48, 0x56, 0xd5, 0xf0, 0xd7, 0xb9,
  0xd2, 0xdf, 0xf5, 0xde, 0xb1, 0x2c, 0x38, 0xeb, 0x10, 0x58, 0xe7, 0xcf,
  0x50, 0x56, 0x03, 0xdc, 0x52, 0xea, 0x5b, 0x3a, 0x40, 0x19, 0xf6, 0x2d,
  0x3c, 0x3f, 0xde, 0x42, 0xfd, 0x5a, 0x07, 0xbd, 0x4b, 0xca, 0xbb, 0x1f,
  0xf0, 0x2e, 0x35, 0xf8, 0x08, 0xe9, 0xc5, 0x46, 0x2a, 0x22, 0x35, 0x2b,
  0x16, 0x15, 0xea, 0xc5, 0xf4, 0xd3, 0x2c, 0x05, 0x1a, 0xf3, 0xfa, 0x0a,
  0x09, 0xdc, 0x2c, 0x2a, 0x2e, 0xa2, 0xcf, 0xdf, 0x34, 0x28, 0x39, 0xc6,
  0xc0, 0xc0, 0xf5, 0xfb, 0x1b, 0x8f, 0xc3, 0x47, 0xf6, 0xd5, 0xd3, 0xf9,
  0x1a, 0x10, 0x4a, 0xed, 0xcb, 0xbc, 0x46, 0x0e, 0xc1, 0xea, 0xd1, 0xf8,
  0xd8, 0xdd, 0xc2, 0x4c, 0xed, 0xaa, 0xe3, 0x4f, 0xa0, 0x88, 0xc0, 0xf2,
  0xed, 0x82, 0xde, 0xed, 0xa5, 0xda, 0x44, 0x41, 0xc6, 0xf7, 0xbd, 0x10,
  0xad, 0xc5, 0xc5, 0xd1, 0x4f, 0xa5, 0x44, 0x21, 0x29, 0x25, 0xf9, 0x4d,
  0xf4, 0x04, 0x33, 0xe8, 0xa6, 0xf8, 0xbe, 0xf3, 0x0f, 0xd3, 0xcc, 0xc9,
  0x33, 0xc0, 0xd4, 0x41, 0x38, 0xe8, 0x41, 0xff, 0x0f, 0xaa, 0x46, 0xe2,
  0xfe, 0x83, 0x0e, 0xff, 0x0c, 0x95, 0xf8, 0xc3, 0x1b, 0x94, 0xed, 0x0c,
  0xf5, 0xc3, 0xe2, 0xe3, 0x06, 0xd9, 0x20, 0x2e, 0xfa, 0xc8, 0xd6, 0x35,
  0x15, 0xce, 0x2b, 0x0b, 0x16, 0xeb, 0x04, 0x2a, 0xbe, 0xe9, 0x05, 0xfb,
  0x1e, 0x05, 0xbc, 0x08, 0x05, 0x9b, 0x21, 0x2c, 0xcb, 0x19, 0xec, 0x14,
  0xf9, 0x08, 0x1a, 0xc0, 0x3d, 0x97, 0xde, 0x00, 0x1b, 0xae, 0x51, 0xe3,
  0x38, 0xa2, 0xc2, 0xaf, 0xb9, 0x22, 0x48, 0x39, 0xb2, 0x0c, 0x00, 0xc9,
  0xc5, 0x07, 0x27, 0x32, 0xdb, 0xcb, 0xcb, 0x3a, 0xd6, 0x91, 0xf4, 0x26,
  0x06, 0xe8, 0xb5, 0xd7, 0x3b, 0x20, 0x40, 0xff, 0xaf, 0xd7, 0xb2, 0xdd,
  0x04, 0x91, 0xcc, 0x1c, 0x3e, 0x06, 0xce, 0x28, 0x30, 0xe1, 0x0e, 0xda,
  0x16, 0x8f, 0xee, 0xf4, 0x01, 0xc9, 0x13, 0x2a, 0x9e, 0xeb, 0x09, 0xe5,
  0x45, 0x99, 0xc7, 0x4a, 0x10, 0x8d, 0xfe, 0xdc, 0xea, 0xde, 0xca, 0xcf,
  0xeb, 0xcd, 0xee, 0xf4, 0xb2, 0xcc, 0x46, 0x42, 0xcd, 0xcf, 0x4e, 0x05,
  0xb7, 0xc6, 0x0c, 0x3a, 0xfb, 0x9a, 0xec, 0x33, 0x08, 0x09, 0x46, 0x06,
  0xf3, 0x86, 0xd8, 0x0e, 0x42, 0xec, 0x12, 0x54, 0xe2, 0x1a, 0x4a, 0x2e,
  0x2f, 0xfb, 0x4f, 0xba, 0xc8, 0xaf, 0xba, 0x4e, 0xd3, 0x15, 0xe6, 0x1d,
  0xd5, 0xca, 0x1a, 0xba, 0x40, 0x8a, 0xb6, 0xe3, 0xb4, 0xec, 0x39, 0x45,
  0xe3, 0xca, 0x07, 0xc4, 0xd2, 0xc4, 0x40, 0x07, 0xda, 0xef, 0xd0, 0xbf,
  0xf1, 0x00, 0xed, 0x35, 0xb4, 0x0a, 0xb7, 0xd9, 0xaf, 0xa0, 0xf4, 0x27,
  0xbe, 0xa4, 0xeb, 0xfc, 0xc1, 0x02, 0x03, 0x04, 0xdf, 0x8d, 0x54, 0x4e,
  0xca, 0xa0, 0xc0, 0xea, 0x3d, 0x1f, 0xf6, 0x15, 0xc7, 0xaa, 0x3b, 0xd6,
  0x18, 0xac, 0x12, 0x3c, 0xc4, 0xe1, 0x3a, 0x3b, 0xd1, 0x08, 0x41, 0x44,
  0xa6, 0xc3, 0x19, 0xbe, 0xe6, 0x97, 0x31, 0x48, 0x2b, 0xe7, 0xf9, 0x31,
  0x44, 0xbe, 0xc5, 0xef, 0xab, 0xf1, 0xf8, 0xf8, 0x3a, 0xfa, 0x05, 0x34,
  0xda, 0xe8, 0xe8, 0xe2, 0xc6, 0x94, 0x1a, 0xdf, 0x21, 0xd7, 0xe0, 0xcc,
  0xdd, 0xc7, 0x4c, 0xff, 0x1a, 0xbd, 0x22, 0xf2, 0x37, 0x0a, 0xd8, 0x24,
  0xac, 0xfb, 0x1a, 0x45, 0x56, 0x0a, 0x4d, 0xd6, 0x27, 0xb9, 0x40, 0x4e,
  0x02, 0xe7, 0x0f, 0xee, 0xd4, 0x9c, 0x48, 0xd0, 0xe3, 0x94, 0xeb, 0x04,
  0x18, 0xa8, 0x4a, 0x1a, 0x0f, 0x97, 0x56, 0xce, 0x36, 0xe7, 0xc5, 0x04,
  0xb7, 0x01, 0xca, 0x1f, 0x28, 0x24, 0xee, 0xbf, 0x21, 0xe3, 0xdb, 0x2a,
  0xb3, 0xcd, 0x22, 0x32, 0xdf, 0xeb, 0xb9, 0x28, 0xf4, 0xaf, 0xf6, 0x33,
  0xbd, 0xc4, 0xea, 0x39, 0x1e, 0xa1, 0xd1, 0x19, 0x1a, 0xfa, 0xbc, 0x09,
  0xd8, 0xbc, 0x20, 0xc8, 0x4b, 0xc8, 0x30, 0xb8, 0xf3, 0xdb, 0xee, 0x32,
  0xb7, 0x14, 0x4e, 0x30, 0xbb, 0xf9, 0x16, 0xd6, 0x27, 0xb2, 0x0f, 0x23,
  0x04, 0xa3, 0x2c, 0x1b, 0xc4, 0xf3, 0x16, 0xd5, 0xc8, 0x5e, 0x30, 0x00,
  0xe5, 0xc8, 0x1d, 0x41, 0x06, 0xdb, 0xc4, 0x31, 0x37, 0x70, 0xe8, 0xbd,
  0xdc, 0x34, 0xd3, 0x34, 0x29, 0x0a, 0x34, 0x32, 0x0e, 0x77, 0x0d, 0xe7,
  0x0d, 0x6a, 0xe1, 0xbc, 0xf7, 0x40, 0x2b, 0xfc, 0x23, 0x4c, 0x2b, 0xef,
  0xd3, 0x14, 0x51, 0xf9, 0x06, 0xdc, 0x02, 0xad, 0xc3, 0x2d, 0x48, 0x46,
  0xae, 0x14, 0x25, 0xbe, 0xc2, 0x3c, 0x2f, 0x1a, 0x02, 0x4b, 0xcf, 0xc5,
  0x4e, 0xe4, 0x24, 0x20, 0x49, 0x5e, 0x39, 0x45, 0xc0, 0x00, 0x03, 0x4b,
  0xb5, 0x12, 0xfa, 0x3e, 0x08, 0x0d, 0x4c, 0x33, 0xc0, 0x2b, 0xcc, 0x23,
  0x48, 0xfc, 0xbf, 0x2a, 0x41, 0x66, 0xce, 0xfd, 0x50, 0xda, 0x3a, 0x16,
  0xb7, 0x17, 0xfc, 0xdb, 0x54, 0x64, 0x0c, 0x47, 0xde, 0xe9, 0x16, 0x2a,
  0x42, 0x06, 0xec, 0xb7, 0xba, 0x17, 0x3f, 0x39, 0xed, 0xfe, 0x14, 0xe8,
  0xfc, 0xfc, 0x1f, 0xdc, 0x12, 0x58, 0xb5, 0x51, 0xc5, 0x58, 0x24, 0xcf,
  0x31, 0x3d, 0x35, 0xe7, 0xc0, 0xda, 0x28, 0x27, 0x2f, 0x4b, 0x35, 0x2d,
  0xb4, 0x35, 0x15, 0xf7, 0x43, 0x34, 0xe6, 0xb2, 0xbe, 0xeb, 0x3e, 0xcc,
  0xed, 0xee, 0xdd, 0x01, 0x29, 0x1c, 0xd1, 0x3b, 0x2a, 0x4a, 0x45, 0x49,
  0xea, 0x4d, 0xd4, 0x2a, 0xfd, 0x26, 0x2b, 0x4a, 0x31, 0x1c, 0x1a, 0xee,
  0x3b, 0x11, 0xe5, 0x49, 0x4d, 0x19, 0x06, 0x07, 0x4b, 0xef, 0x12, 0x0d,
  0x12, 0x2b, 0x14, 0x20, 0xe2, 0x27, 0x3e, 0xc9, 0xcb, 0xea, 0x41, 0xbc,
  0xdf, 0x70, 0x0f, 0xfe, 0x3c, 0x56, 0xe0, 0xfa, 0xd0, 0x1a, 0x46, 0x24,
  0x1d, 0x56, 0x05, 0x01, 0x2b, 0x79, 0xc0, 0x32, 0x4a, 0x34, 0xf4, 0xd3,
  0x2a, 0x35, 0x57, 0xd3, 0xc5, 0x69, 0xff, 0xe8, 0x3e, 0x67, 0x32, 0xb3,
  0x4d, 0x40, 0x13, 0x42, 0xc5, 0xea, 0x08, 0xfd, 0x16, 0x76, 0xc0, 0xb2,
  0x2a, 0xfb, 0xdf, 0xdc, 0xf5, 0x4b, 0x17, 0x22, 0x7a, 0xfd, 0xff, 0xff,
  0x00, 0x00, 0x00, 0x09, 0x2c, 0x00, 0x00, 0x00, 0x05, 0x00, 0x00, 0x00,
  0x08, 0x00, 0x00, 0x00, 0x2c, 0x00, 0x00, 0x00, 0x17, 0x00, 0x00, 0x00,
  0x73, 0x65, 0x71, 0x75, 0x65, 0x6e, 0x74, 0x69, 0x61, 0x6c, 0x2f, 0x64,
  0x65, 0x6e, 0x73, 0x65, 0x2f, 0x4d, 0x61, 0x74, 0x4d, 0x75, 0x6c, 0x00,
  0x02, 0x00, 0x00, 0x00, 0x08, 0x00, 0x00, 0x00, 0x08, 0x01, 0x00, 0x00,
  0xec, 0xfc, 0xff, 0xff, 0x18, 0x00, 0x00, 0x00, 0x04, 0x00, 0x00, 0x00,
  0x01, 0x00, 0x00, 0x00, 0x00, 0x00, 0x00, 0x00, 0x00, 0x00, 0x00, 0x00,
  0x00, 0x00, 0x00, 0x00, 0x01, 0x00, 0x00, 0x00, 0x01, 0xbd, 0xef, 0x3a,
  0xfa, 0xfd, 0xff, 0xff, 0x04, 0x00, 0x00, 0x00, 0x20, 0x00, 0x00, 0x00,
  0x1a, 0xf6, 0xff, 0xff, 0x50, 0xf7, 0xff, 0xff, 0xe6, 0xeb, 0xff, 0xff,
  0x67, 0xf1, 0xff, 0xff, 0x40, 0x02, 0x00, 0x00, 0x0e, 0xff, 0xff, 0xff,
  0x00, 0xf8, 0xff, 0xff, 0xb4, 0x02, 0x00, 0x00, 0x0a, 0xfe, 0xff, 0xff,
  0x00, 0x00, 0x00, 0x02, 0x20, 0x00, 0x00, 0x00, 0x04, 0x00, 0x00, 0x00,
  0x08, 0x00, 0x00, 0x00, 0x1c, 0x00, 0x00, 0x00, 0x0b, 0x00, 0x00, 0x00,
  0x63, 0x6f, 0x6e, 0x76, 0x32, 0x64, 0x2f, 0x62, 0x69, 0x61, 0x73, 0x00,
  0x01, 0x00, 0x00, 0x00, 0x08, 0x00, 0x00, 0x00, 0x6c, 0xfd, 0xff, 0xff,
  0x50, 0x00, 0x00, 0x00, 0x04, 0x00, 0x00, 0x00, 0x08, 0x00, 0x00, 0x00,
  0x00, 0x00, 0x00, 0x00, 0x00, 0x00, 0x00, 0x00, 0x00, 0x00, 0x00, 0x00,
  0x00, 0x00, 0x00, 0x00, 0x00, 0x00, 0x00, 0x00, 0x00, 0x00, 0x00, 0x00,
  0x00, 0x00, 0x00, 0x00, 0x00, 0x00, 0x00, 0x00, 0x00, 0x00, 0x00, 0x00,
  0x00, 0x00, 0x00, 0x00, 0x00, 0x00, 0x00, 0x00, 0x00, 0x00, 0x00, 0x00,
  0x00, 0x00, 0x00, 0x00, 0x00, 0x00, 0x00, 0x00, 0x00, 0x00, 0x00, 0x00,
  0x00, 0x00, 0x00, 0x00, 0x00, 0x00, 0x00, 0x00, 0x08, 0x00, 0x00, 0x00,
  0xea, 0xd4, 0x1f, 0x37, 0x98, 0x68, 0x14, 0x37, 0x84, 0x68, 0xb9, 0x36,
  0xf3, 0x46, 0xc1, 0x36, 0x94, 0xa1, 0xab, 0x36, 0xfe, 0xf6, 0xea, 0x36,
  0x40, 0xe1, 0x04, 0x37, 0x54, 0xa0, 0xe6, 0x36, 0xce, 0xfe, 0xff, 0xff,
  0x04, 0x00, 0x00, 0x00, 0x60, 0x00, 0x00, 0x00, 0x7f, 0x15, 0x38, 0x1d,
  0x26, 0xb5, 0xd2, 0xd2, 0x12, 0x19, 0xeb, 0x29, 0xa8, 0x08, 0x7f, 0xdf,
  0x5f, 0xc3, 0x6a, 0x62, 0xcd, 0x2d, 0xcf, 0xa4, 0x2c, 0x94, 0x63, 0x52,
  0x6f, 0x7f, 0xcc, 0x79, 0x6f, 0x81, 0x88, 0x4f, 0x6a, 0x81, 0xd2, 0xbf,
  0x7c, 0x20, 0x44, 0x60, 0x78, 0xea, 0x70, 0xe7, 0x4f, 0xa5, 0x81, 0xc0,
  0x28, 0x63, 0x57, 0xdc, 0x58, 0x67, 0x5b, 0xae, 0x25, 0xec, 0x52, 0xc6,
  0x33, 0x08, 0xa1, 0x20, 0x81, 0x16, 0x0c, 0x46, 0x11, 0x5d, 0xdc, 0x32,
  0xda, 0x64, 0xd9, 0x39, 0xdc, 0x7f, 0xc8, 0xe6, 0xab, 0x99, 0x34, 0xa6,
  0x36, 0x59, 0x18, 0x17, 0x81, 0x2c, 0xdc, 0x93, 0x1e, 0xff, 0xff, 0xff,
  0x00, 0x00, 0x00, 0x09, 0x30, 0x00, 0x00, 0x00, 0x03, 0x00, 0x00, 0x00,
  0x08, 0x00, 0x00, 0x00, 0x38, 0x00, 0x00, 0x00, 0x18, 0x00, 0x00, 0x00,
  0x73, 0x65, 0x71, 0x75, 0x65, 0x6e, 0x74, 0x69, 0x61, 0x6c, 0x2f, 0x63,
  0x6f, 0x6e, 0x76, 0x32, 0x64, 0x2f, 0x43, 0x6f, 0x6e, 0x76, 0x32, 0x44,
  0x00, 0x00, 0x00, 0x00, 0x04, 0x00, 0x00, 0x00, 0x08, 0x00, 0x00, 0x00,
  0x03, 0x00, 0x00, 0x00, 0x04, 0x00, 0x00, 0x00, 0x01, 0x00, 0x00, 0x00,
  0x9c, 0xfe, 0xff, 0xff, 0x50, 0x00, 0x00, 0x00, 0x04, 0x00, 0x00, 0x00,
  0x08, 0x00, 0x00, 0x00, 0x00, 0x00, 0x00, 0x00, 0x00, 0x00, 0x00, 0x00,
  0x00, 0x00, 0x00, 0x00, 0x00, 0x00, 0x00, 0x00, 0x00, 0x00, 0x00, 0x00,
  0x00, 0x00, 0x00, 0x00, 0x00, 0x00, 0x00, 0x00, 0x00, 0x00, 0x00, 0x00,
  0x00, 0x00, 0x00, 0x00, 0x00, 0x00, 0x00, 0x00, 0x00, 0x00, 0x00, 0x00,
  0x00, 0x00, 0x00, 0x00, 0x00, 0x00, 0x00, 0x00, 0x00, 0x00, 0x00, 0x00,
  0x00, 0x00, 0x00, 0x00, 0x00, 0x00, 0x00, 0x00, 0x00, 0x00, 0x00, 0x00,
  0x08, 0x00, 0x00, 0x00, 0x2a, 0x35, 0x1f, 0x3b, 0x42, 0xd4, 0x13, 0x3b,
  0x33, 0xaf, 0xb8, 0x3a, 0xc5, 0x85, 0xc0, 0x3a, 0x08, 0xf6, 0xaa, 0x3a,
  0x25, 0x0c, 0xea, 0x3a, 0x70, 0x5c, 0x04, 0x3b, 0xd1, 0xb9, 0xe5, 0x3a,
  0x00, 0x00, 0x06, 0x00, 0x08, 0x00, 0x04, 0x00, 0x06, 0x00, 0x00, 0x00,
  0x04, 0x00, 0x00, 0x00, 0x08, 0x00, 0x00, 0x00, 0xff, 0xff, 0xff, 0xff,
  0x08, 0x01, 0x00, 0x00, 0x00, 0x00, 0x0e, 0x00, 0x18, 0x00, 0x08, 0x00,
  0x07, 0x00, 0x0c, 0x00, 0x10, 0x00, 0x14, 0x00, 0x0e, 0x00, 0x00, 0x00,
  0x00, 0x00, 0x00, 0x02, 0x30, 0x00, 0x00, 0x00, 0x02, 0x00, 0x00, 0x00,
  0x08, 0x00, 0x00, 0x00, 0x2c, 0x00, 0x00, 0x00, 0x18, 0x00, 0x00, 0x00,
  0x73, 0x65, 0x71, 0x75, 0x65, 0x6e, 0x74, 0x69, 0x61, 0x6c, 0x2f, 0x66,
  0x6c, 0x61, 0x74, 0x74, 0x65, 0x6e, 0x2f, 0x43, 0x6f, 0x6e, 0x73, 0x74,
  0x00, 0x00, 0x00, 0x00, 0x01, 0x00, 0x00, 0x00, 0x02, 0x00, 0x00, 0x00,
  0x54, 0xff, 0xff, 0xff, 0x14, 0x00, 0x1c, 0x00, 0x08, 0x00, 0x07, 0x00,
  0x0c, 0x00, 0x10, 0x00, 0x14, 0x00, 0x00, 0x00, 0x00, 0x00, 0x18, 0x00,
  0x14, 0x00, 0x00, 0x00, 0x00, 0x00, 0x00, 0x09, 0x4c, 0x00, 0x00, 0x00,
  0x01, 0x00, 0x00, 0x00, 0x20, 0x00, 0x00, 0x00, 0x60, 0x00, 0x00, 0x00,
  0x04, 0x00, 0x00, 0x00, 0x04, 0x00, 0x00, 0x00, 0xff, 0xff, 0xff, 0xff,
  0x64, 0x00, 0x00, 0x00, 0x03, 0x00, 0x00, 0x00, 0x01, 0x00, 0x00, 0x00,
  0x1e, 0x00, 0x00, 0x00, 0x73, 0x65, 0x72, 0x76, 0x69, 0x6e, 0x67, 0x5f,
  0x64, 0x65, 0x66, 0x61, 0x75, 0x6c, 0x74, 0x5f, 0x63, 0x6f, 0x6e, 0x76,
  0x32, 0x64, 0x5f, 0x69, 0x6e, 0x70, 0x75, 0x74, 0x3a, 0x30, 0x00, 0x00,
  0x04, 0x00, 0x00, 0x00, 0x01, 0x00, 0x00, 0x00, 0x64, 0x00, 0x00, 0x00,
  0x03, 0x00, 0x00, 0x00, 0x01, 0x00, 0x00, 0x00, 0x0c, 0x00, 0x0c, 0x00,
  0x00, 0x00, 0x00, 0x00, 0x04, 0x00, 0x08, 0x00, 0x0c, 0x00, 0x00, 0x00,
  0x14, 0x00, 0x00, 0x00, 0x04, 0x00, 0x00, 0x00, 0x01, 0x00, 0x00, 0x00,
  0x80, 0xff, 0xff, 0xff, 0xff, 0xff, 0xff, 0xff, 0x01, 0x00, 0x00, 0x00,
  0x70, 0x80, 0x80, 0x3b, 0x04, 0x00, 0x04, 0x00, 0x04, 0x00, 0x00, 0x00
};
unsigned int model_tflite_len = 5328;
